[PAD]
[unused1]
[unused2]
[unused3]
[unused4]
[unused5]
[unused6]
[unused7]
[unused8]
[unused9]
[unused10]
[unused11]
[unused12]
[unused13]
[unused14]
[unused15]
[unused16]
[unused17]
[unused18]
[unused19]
[unused20]
[unused21]
[unused22]
[unused23]
[unused24]
[unused25]
[unused26]
[unused27]
[unused28]
[unused29]
[unused30]
[unused31]
[unused32]
[unused33]
[unused34]
[unused35]
[unused36]
[unused37]
[unused38]
[unused39]
[unused40]
[unused41]
[unused42]
[unused43]
[unused44]
[unused45]
[unused46]
[unused47]
[unused48]
[unused49]
[unused50]
[unused51]
[unused52]
[unused53]
[unused54]
[unused55]
[unused56]
[unused57]
[unused58]
[unused59]
[unused60]
[unused61]
[unused62]
[unused63]
[unused64]
[unused65]
[unused66]
[unused67]
[unused68]
[unused69]
[unused70]
[unused71]
[unused72]
[unused73]
[unused74]
[unused75]
[unused76]
[unused77]
[unused78]
[unused79]
[unused80]
[unused81]
[unused82]
[unused83]
[unused84]
[unused85]
[unused86]
[unused87]
[unused88]
[unused89]
[unused90]
[unused91]
[unused92]
[unused93]
[unused94]
[unused95]
[unused96]
[unused97]
[unused98]
[unused99]
[UNK]
[CLS]
[SEP]
[MASK]
<S>
<T>
!
"
#
$
%
&
'
(
)
*
+
,
-
.
/
0
1
2
3
4
5
6
7
8
9
:
;
<
=
>
?
@
[
\
]
^
_
a
b
c
d
e
f
g
h
i
j
k
l
m
n
o
p
q
r
s
t
u
v
w
x
y
z
{
|
}
~
£
¤
¥
§
©
«
®
°
±
²
³
µ
·
¹
º
»
¼
×
ß
æ
÷
ø
đ
ŋ
ɔ
ə
ɡ
ʰ
ˇ
ˈ
ˊ
ˋ
ˍ
ː
˙
˚
ˢ
α
β
γ
δ
ε
η
θ
ι
κ
λ
μ
ν
ο
π
ρ
ς
σ
τ
υ
φ
χ
ψ
ω
а
б
в
г
д
е
ж
з
и
к
л
м
н
о
п
р
с
т
у
ф
х
ц
ч
ш
ы
ь
я
і
ا
ب
ة
ت
د
ر
س
ع
ل
م
ن
ه
و
ي
۩
ก
ง
น
ม
ย
ร
อ
า
เ
๑
་
ღ
ᄀ
ᄁ
ᄂ
ᄃ
ᄅ
ᄆ
ᄇ
ᄈ
ᄉ
ᄋ
ᄌ
ᄎ
ᄏ
ᄐ
ᄑ
ᄒ
ᅡ
ᅢ
ᅣ
ᅥ
ᅦ
ᅧ
ᅨ
ᅩ
ᅪ
ᅬ
ᅭ
ᅮ
ᅯ
ᅲ
ᅳ
ᅴ
ᅵ
ᆨ
ᆫ
ᆯ
ᆷ
ᆸ
ᆺ
ᆻ
ᆼ
ᗜ
ᵃ
ᵉ
ᵍ
ᵏ
ᵐ
ᵒ
ᵘ
‖
„
†
•
‥
‧
 
‰
′
″
‹
›
※
‿
⁄
ⁱ
⁺
ⁿ
₁
₂
₃
₄
€
℃
№
™
ⅰ
ⅱ
ⅲ
ⅳ
ⅴ
←
↑
→
↓
↔
↗
↘
⇒
∀
−
∕
∙
√
∞
∟
∠
∣
∥
∩
∮
∶
∼
∽
≈
≒
≡
≤
≥
≦
≧
≪
≫
⊙
⋅
⋈
⋯
⌒
①
②
③
④
⑤
⑥
⑦
⑧
⑨
⑩
⑴
⑵
⑶
⑷
⑸
⒈
⒉
⒊
⒋
ⓒ
ⓔ
ⓘ
─
━
│
┃
┅
┆
┊
┌
└
├
┣
═
║
╚
╞
╠
╭
╮
╯
╰
╱
╳
▂
▃
▅
▇
█
▉
▋
▌
▍
▎
■
□
▪
▫
▬
▲
△
▶
►
▼
▽
◆
◇
○
◎
●
◕
◠
◢
◤
☀
★
☆
☕
☞
☺
☼
♀
♂
♠
♡
♣
♥
♦
♪
♫
♬
✈
✔
✕
✖
✦
✨
✪
✰
✿
❀
❤
➜
➤
⦿
、
。
〃
々
〇
〈
〉
《
》
「
」
『
』
【
】
〓
〔
〕
〖
〗
〜
〝
〞
ぁ
あ
ぃ
い
う
ぇ
え
お
か
き
く
け
こ
さ
し
す
せ
そ
た
ち
っ
つ
て
と
な
に
ぬ
ね
の
は
ひ
ふ
へ
ほ
ま
み
む
め
も
ゃ
や
ゅ
ゆ
ょ
よ
ら
り
る
れ
ろ
わ
を
ん
゜
ゝ
ァ
ア
ィ
イ
ゥ
ウ
ェ
エ
ォ
オ
カ
キ
ク
ケ
コ
サ
シ
ス
セ
ソ
タ
チ
ッ
ツ
テ
ト
ナ
ニ
ヌ
ネ
ノ
ハ
ヒ
フ
ヘ
ホ
マ
ミ
ム
メ
モ
ャ
ヤ
ュ
ユ
ョ
ヨ
ラ
リ
ル
レ
ロ
ワ
ヲ
ン
ヶ
・
ー
ヽ
ㄅ
ㄆ
ㄇ
ㄉ
ㄋ
ㄌ
ㄍ
ㄎ
ㄏ
ㄒ
ㄚ
ㄛ
ㄞ
ㄟ
ㄢ
ㄤ
ㄥ
ㄧ
ㄨ
ㆍ
㈦
㊣
㎡
㗎
一
丁
七
万
丈
三
上
下
不
与
丐
丑
专
且
丕
世
丘
丙
业
丛
东
丝
丞
丟
両
丢
两
严
並
丧
丨
个
丫
中
丰
串
临
丶
丸
丹
为
主
丼
丽
举
丿
乂
乃
久
么
义
之
乌
乍
乎
乏
乐
乒
乓
乔
乖
乗
乘
乙
乜
九
乞
也
习
乡
书
乩
买
乱
乳
乾
亀
亂
了
予
争
事
二
于
亏
云
互
五
井
亘
亙
亚
些
亜
亞
亟
亡
亢
交
亥
亦
产
亨
亩
享
京
亭
亮
亲
亳
亵
人
亿
什
仁
仃
仄
仅
仆
仇
今
介
仍
从
仏
仑
仓
仔
仕
他
仗
付
仙
仝
仞
仟
代
令
以
仨
仪
们
仮
仰
仲
件
价
任
份
仿
企
伉
伊
伍
伎
伏
伐
休
伕
众
优
伙
会
伝
伞
伟
传
伢
伤
伦
伪
伫
伯
估
伴
伶
伸
伺
似
伽
佃
但
佇
佈
位
低
住
佐
佑
体
佔
何
佗
佘
余
佚
佛
作
佝
佞
佟
你
佢
佣
佤
佥
佩
佬
佯
佰
佳
併
佶
佻
佼
使
侃
侄
來
侈
例
侍
侏
侑
侖
侗
供
依
侠
価
侣
侥
侦
侧
侨
侬
侮
侯
侵
侶
侷
便
係
促
俄
俊
俎
俏
俐
俑
俗
俘
俚
保
俞
俟
俠
信
俨
俩
俪
俬
俭
修
俯
俱
俳
俸
俺
俾
倆
倉
個
倌
倍
倏
們
倒
倔
倖
倘
候
倚
倜
借
倡
値
倦
倩
倪
倫
倬
倭
倶
债
值
倾
偃
假
偈
偉
偌
偎
偏
偕
做
停
健
側
偵
偶
偷
偻
偽
偿
傀
傅
傍
傑
傘
備
傚
傢
傣
傥
储
傩
催
傭
傲
傳
債
傷
傻
傾
僅
働
像
僑
僕
僖
僚
僥
僧
僭
僮
僱
僵
價
僻
儀
儂
億
儆
儉
儋
儒
儕
儘
償
儡
優
儲
儷
儼
儿
兀
允
元
兄
充
兆
兇
先
光
克
兌
免
児
兑
兒
兔
兖
党
兜
兢
入
內
全
兩
八
公
六
兮
兰
共
兲
关
兴
兵
其
具
典
兹
养
兼
兽
冀
内
円
冇
冈
冉
冊
册
再
冏
冒
冕
冗
写
军
农
冠
冢
冤
冥
冨
冪
冬
冯
冰
冲
决
况
冶
冷
冻
冼
冽
冾
净
凄
准
凇
凈
凉
凋
凌
凍
减
凑
凛
凜
凝
几
凡
凤
処
凪
凭
凯
凰
凱
凳
凶
凸
凹
出
击
函
凿
刀
刁
刃
分
切
刈
刊
刍
刎
刑
划
列
刘
则
刚
创
初
删
判
別
刨
利
刪
别
刮
到
制
刷
券
刹
刺
刻
刽
剁
剂
剃
則
剉
削
剋
剌
前
剎
剐
剑
剔
剖
剛
剜
剝
剣
剤
剥
剧
剩
剪
副
割
創
剷
剽
剿
劃
劇
劈
劉
劊
劍
劏
劑
力
劝
办
功
加
务
劣
动
助
努
劫
劭
励
劲
劳
労
劵
効
劾
势
勁
勃
勇
勉
勋
勐
勒
動
勖
勘
務
勛
勝
勞
募
勢
勤
勧
勳
勵
勸
勺
勻
勾
勿
匀
包
匆
匈
匍
匐
匕
化
北
匙
匝
匠
匡
匣
匪
匮
匯
匱
匹
区
医
匾
匿
區
十
千
卅
升
午
卉
半
卍
华
协
卑
卒
卓
協
单
卖
南
単
博
卜
卞
卟
占
卡
卢
卤
卦
卧
卫
卮
卯
印
危
即
却
卵
卷
卸
卻
卿
厂
厄
厅
历
厉
压
厌
厕
厘
厚
厝
原
厢
厥
厦
厨
厩
厭
厮
厲
厳
去
县
叁
参
參
又
叉
及
友
双
反
収
发
叔
取
受
变
叙
叛
叟
叠
叡
叢
口
古
句
另
叨
叩
只
叫
召
叭
叮
可
台
叱
史
右
叵
叶
号
司
叹
叻
叼
叽
吁
吃
各
吆
合
吉
吊
吋
同
名
后
吏
吐
向
吒
吓
吕
吖
吗
君
吝
吞
吟
吠
吡
否
吧
吨
吩
含
听
吭
吮
启
吱
吳
吴
吵
吶
吸
吹
吻
吼
吽
吾
呀
呂
呃
呆
呈
告
呋
呎
呐
呓
呕
呗
员
呛
呜
呢
呤
呦
周
呱
呲
味
呵
呷
呸
呻
呼
命
咀
咁
咂
咄
咆
咋
和
咎
咏
咐
咒
咔
咕
咖
咗
咘
咙
咚
咛
咣
咤
咦
咧
咨
咩
咪
咫
咬
咭
咯
咱
咲
咳
咸
咻
咽
咿
哀
品
哂
哄
哆
哇
哈
哉
哋
哌
响
哎
哏
哐
哑
哒
哔
哗
哟
員
哥
哦
哧
哨
哩
哪
哭
哮
哲
哺
哼
哽
唁
唄
唆
唇
唉
唏
唐
唑
唔
唠
唤
唧
唬
售
唯
唰
唱
唳
唷
唸
唾
啃
啄
商
啉
啊
問
啓
啕
啖
啜
啞
啟
啡
啤
啥
啦
啧
啪
啫
啬
啮
啰
啱
啲
啵
啶
啷
啸
啻
啼
啾
喀
喂
喃
善
喆
喇
喉
喊
喋
喎
喏
喔
喘
喙
喚
喜
喝
喟
喧
喪
喫
喬
單
喰
喱
喲
喳
喵
営
喷
喹
喺
喻
喽
嗅
嗆
嗇
嗎
嗑
嗒
嗓
嗔
嗖
嗚
嗜
嗝
嗟
嗡
嗣
嗤
嗦
嗨
嗪
嗬
嗯
嗰
嗲
嗳
嗶
嗷
嗽
嘀
嘅
嘆
嘈
嘉
嘌
嘍
嘎
嘔
嘖
嘗
嘘
嘚
嘛
嘜
嘞
嘟
嘢
嘣
嘤
嘧
嘩
嘭
嘮
嘯
嘰
嘱
嘲
嘴
嘶
嘸
嘹
嘻
嘿
噁
噌
噎
噓
噔
噗
噙
噜
噠
噢
噤
器
噩
噪
噬
噱
噴
噶
噸
噹
噻
噼
嚀
嚇
嚎
嚏
嚐
嚓
嚕
嚟
嚣
嚥
嚨
嚮
嚴
嚷
嚼
囂
囉
囊
囍
囑
囔
囗
囚
四
囝
回
囟
因
囡
团
団
囤
囧
囪
囫
园
困
囱
囲
図
围
囹
固
国
图
囿
圃
圄
圆
圈
國
圍
圏
園
圓
圖
團
圜
土
圣
圧
在
圩
圭
地
圳
场
圻
圾
址
坂
均
坊
坍
坎
坏
坐
坑
块
坚
坛
坝
坞
坟
坠
坡
坤
坦
坨
坪
坯
坳
坵
坷
垂
垃
垄
型
垒
垚
垛
垠
垢
垣
垦
垩
垫
垭
垮
垵
埂
埃
埋
城
埔
埕
埗
域
埠
埤
埵
執
埸
培
基
埼
堀
堂
堃
堅
堆
堇
堑
堕
堙
堡
堤
堪
堯
堰
報
場
堵
堺
堿
塊
塌
塑
塔
塗
塘
塚
塞
塢
塩
填
塬
塭
塵
塾
墀
境
墅
墉
墊
墒
墓
増
墘
墙
墜
增
墟
墨
墩
墮
墳
墻
墾
壁
壅
壆
壇
壊
壑
壓
壕
壘
壞
壟
壢
壤
壩
士
壬
壮
壯
声
売
壳
壶
壹
壺
壽
处
备
変
复
夏
夔
夕
外
夙
多
夜
够
夠
夢
夥
大
天
太
夫
夭
央
夯
失
头
夷
夸
夹
夺
夾
奂
奄
奇
奈
奉
奋
奎
奏
奐
契
奔
奕
奖
套
奘
奚
奠
奢
奥
奧
奪
奬
奮
女
奴
奶
奸
她
好
如
妃
妄
妆
妇
妈
妊
妍
妒
妓
妖
妘
妙
妝
妞
妣
妤
妥
妨
妩
妪
妮
妲
妳
妹
妻
妾
姆
姉
姊
始
姍
姐
姑
姒
姓
委
姗
姚
姜
姝
姣
姥
姦
姨
姪
姫
姬
姹
姻
姿
威
娃
娄
娅
娆
娇
娉
娑
娓
娘
娛
娜
娟
娠
娣
娥
娩
娱
娲
娴
娶
娼
婀
婁
婆
婉
婊
婕
婚
婢
婦
婧
婪
婭
婴
婵
婶
婷
婺
婿
媒
媚
媛
媞
媧
媲
媳
媽
媾
嫁
嫂
嫉
嫌
嫑
嫔
嫖
嫘
嫚
嫡
嫣
嫦
嫩
嫲
嫵
嫻
嬅
嬉
嬌
嬗
嬛
嬢
嬤
嬪
嬰
嬴
嬷
嬸
嬿
孀
孃
子
孑
孔
孕
孖
字
存
孙
孚
孛
孜
孝
孟
孢
季
孤
学
孩
孪
孫
孬
孰
孱
孳
孵
學
孺
孽
孿
宁
它
宅
宇
守
安
宋
完
宏
宓
宕
宗
官
宙
定
宛
宜
宝
实
実
宠
审
客
宣
室
宥
宦
宪
宫
宮
宰
害
宴
宵
家
宸
容
宽
宾
宿
寂
寄
寅
密
寇
富
寐
寒
寓
寛
寝
寞
察
寡
寢
寥
實
寧
寨
審
寫
寬
寮
寰
寵
寶
寸
对
寺
寻
导
対
寿
封
専
射
将
將
專
尉
尊
尋
對
導
小
少
尔
尕
尖
尘
尚
尝
尤
尧
尬
就
尴
尷
尸
尹
尺
尻
尼
尽
尾
尿
局
屁
层
屄
居
屆
屈
屉
届
屋
屌
屍
屎
屏
屐
屑
展
屜
属
屠
屡
屢
層
履
屬
屯
山
屹
屿
岀
岁
岂
岌
岐
岑
岔
岖
岗
岘
岙
岚
岛
岡
岩
岫
岬
岭
岱
岳
岷
岸
峇
峋
峒
峙
峡
峤
峥
峦
峨
峪
峭
峯
峰
峴
島
峻
峽
崁
崂
崆
崇
崎
崑
崔
崖
崗
崙
崛
崧
崩
崭
崴
崽
嵇
嵊
嵋
嵌
嵐
嵘
嵩
嵬
嵯
嶂
嶄
嶇
嶋
嶙
嶺
嶼
嶽
巅
巍
巒
巔
巖
川
州
巡
巢
工
左
巧
巨
巩
巫
差
己
已
巳
巴
巷
巻
巽
巾
巿
币
市
布
帅
帆
师
希
帐
帑
帕
帖
帘
帚
帛
帜
帝
帥
带
帧
師
席
帮
帯
帰
帳
帶
帷
常
帼
帽
幀
幂
幄
幅
幌
幔
幕
幟
幡
幢
幣
幫
干
平
年
并
幸
幹
幺
幻
幼
幽
幾
广
庁
広
庄
庆
庇
床
序
庐
库
应
底
庖
店
庙
庚
府
庞
废
庠
度
座
庫
庭
庵
庶
康
庸
庹
庾
廁
廂
廃
廈
廉
廊
廓
廖
廚
廝
廟
廠
廢
廣
廬
廳
延
廷
建
廿
开
弁
异
弃
弄
弈
弊
弋
式
弑
弒
弓
弔
引
弗
弘
弛
弟
张
弥
弦
弧
弩
弭
弯
弱
張
強
弹
强
弼
弾
彅
彆
彈
彌
彎
归
当
录
彗
彙
彝
形
彤
彥
彦
彧
彩
彪
彫
彬
彭
彰
影
彷
役
彻
彼
彿
往
征
径
待
徇
很
徉
徊
律
後
徐
徑
徒
従
徕
得
徘
徙
徜
從
徠
御
徨
復
循
徬
微
徳
徴
徵
德
徹
徼
徽
心
必
忆
忌
忍
忏
忐
忑
忒
忖
志
忘
忙
応
忠
忡
忤
忧
忪
快
忱
念
忻
忽
忿
怀
态
怂
怅
怆
怎
怏
怒
怔
怕
怖
怙
怜
思
怠
怡
急
怦
性
怨
怪
怯
怵
总
怼
恁
恃
恆
恋
恍
恐
恒
恕
恙
恚
恢
恣
恤
恥
恨
恩
恪
恫
恬
恭
息
恰
恳
恵
恶
恸
恺
恻
恼
恿
悄
悅
悉
悌
悍
悔
悖
悚
悟
悠
患
悦
您
悩
悪
悬
悯
悱
悲
悴
悵
悶
悸
悻
悼
悽
情
惆
惇
惊
惋
惑
惕
惘
惚
惜
惟
惠
惡
惦
惧
惨
惩
惫
惬
惭
惮
惯
惰
惱
想
惴
惶
惹
惺
愁
愆
愈
愉
愍
意
愕
愚
愛
愜
感
愣
愤
愧
愫
愷
愿
慄
慈
態
慌
慎
慑
慕
慘
慚
慟
慢
慣
慧
慨
慫
慮
慰
慳
慵
慶
慷
慾
憂
憊
憋
憎
憐
憑
憔
憚
憤
憧
憨
憩
憫
憬
憲
憶
憾
懂
懇
懈
應
懊
懋
懑
懒
懦
懲
懵
懶
懷
懸
懺
懼
懾
懿
戀
戈
戊
戌
戍
戎
戏
成
我
戒
戕
或
战
戚
戛
戟
戡
戦
截
戬
戮
戰
戲
戳
戴
戶
户
戸
戻
戾
房
所
扁
扇
扈
扉
手
才
扎
扑
扒
打
扔
払
托
扛
扣
扦
执
扩
扪
扫
扬
扭
扮
扯
扰
扱
扳
扶
批
扼
找
承
技
抄
抉
把
抑
抒
抓
投
抖
抗
折
抚
抛
抜
択
抟
抠
抡
抢
护
报
抨
披
抬
抱
抵
抹
押
抽
抿
拂
拄
担
拆
拇
拈
拉
拋
拌
拍
拎
拐
拒
拓
拔
拖
拗
拘
拙
拚
招
拜
拟
拡
拢
拣
拥
拦
拧
拨
择
括
拭
拮
拯
拱
拳
拴
拷
拼
拽
拾
拿
持
挂
指
挈
按
挎
挑
挖
挙
挚
挛
挝
挞
挟
挠
挡
挣
挤
挥
挨
挪
挫
振
挲
挹
挺
挽
挾
捂
捅
捆
捉
捋
捌
捍
捎
捏
捐
捕
捞
损
捡
换
捣
捧
捨
捩
据
捱
捲
捶
捷
捺
捻
掀
掂
掃
掇
授
掉
掌
掏
掐
排
掖
掘
掙
掛
掠
採
探
掣
接
控
推
掩
措
掬
掰
掲
掳
掴
掷
掸
掺
揀
揃
揄
揆
揉
揍
描
提
插
揖
揚
換
握
揣
揩
揪
揭
揮
援
揶
揸
揹
揽
搀
搁
搂
搅
損
搏
搐
搓
搔
搖
搗
搜
搞
搡
搪
搬
搭
搵
搶
携
搽
摀
摁
摄
摆
摇
摈
摊
摒
摔
摘
摞
摟
摧
摩
摯
摳
摸
摹
摺
摻
撂
撃
撅
撇
撈
撐
撑
撒
撓
撕
撚
撞
撤
撥
撩
撫
撬
播
撮
撰
撲
撵
撷
撸
撻
撼
撿
擀
擁
擂
擄
擅
擇
擊
擋
操
擎
擒
擔
擘
據
擞
擠
擡
擢
擦
擬
擰
擱
擲
擴
擷
擺
擼
擾
攀
攏
攒
攔
攘
攙
攜
攝
攞
攢
攣
攤
攥
攪
攫
攬
支
收
攸
改
攻
放
政
故
效
敌
敍
敎
敏
救
敕
敖
敗
敘
教
敛
敝
敞
敢
散
敦
敬
数
敲
整
敵
敷
數
斂
斃
文
斋
斌
斎
斐
斑
斓
斗
料
斛
斜
斟
斡
斤
斥
斧
斩
斫
斬
断
斯
新
斷
方
於
施
旁
旃
旅
旋
旌
旎
族
旖
旗
无
既
日
旦
旧
旨
早
旬
旭
旮
旱
时
旷
旺
旻
昀
昂
昆
昇
昉
昊
昌
明
昏
易
昔
昕
昙
星
映
春
昧
昨
昭
是
昱
昴
昵
昶
昼
显
晁
時
晃
晉
晋
晌
晏
晒
晓
晔
晕
晖
晗
晚
晝
晞
晟
晤
晦
晨
晩
普
景
晰
晴
晶
晷
智
晾
暂
暄
暇
暈
暉
暌
暐
暑
暖
暗
暝
暢
暧
暨
暫
暮
暱
暴
暸
暹
曄
曆
曇
曉
曖
曙
曜
曝
曠
曦
曬
曰
曲
曳
更
書
曹
曼
曾
替
最
會
月
有
朋
服
朐
朔
朕
朗
望
朝
期
朦
朧
木
未
末
本
札
朮
术
朱
朴
朵
机
朽
杀
杂
权
杆
杈
杉
李
杏
材
村
杓
杖
杜
杞
束
杠
条
来
杨
杭
杯
杰
東
杳
杵
杷
杼
松
板
极
构
枇
枉
枋
析
枕
林
枚
果
枝
枢
枣
枪
枫
枭
枯
枰
枱
枳
架
枷
枸
柄
柏
某
柑
柒
染
柔
柘
柚
柜
柞
柠
柢
查
柩
柬
柯
柱
柳
柴
柵
査
柿
栀
栃
栄
栅
标
栈
栉
栋
栎
栏
树
栓
栖
栗
校
栩
株
样
核
根
格
栽
栾
桀
桁
桂
桃
桅
框
案
桉
桌
桎
桐
桑
桓
桔
桜
桠
桡
桢
档
桥
桦
桧
桨
桩
桶
桿
梁
梅
梆
梏
梓
梗
條
梟
梢
梦
梧
梨
梭
梯
械
梳
梵
梶
检
棂
棄
棉
棋
棍
棒
棕
棗
棘
棚
棟
棠
棣
棧
森
棱
棲
棵
棹
棺
椁
椅
椋
植
椎
椒
検
椪
椭
椰
椹
椽
椿
楂
楊
楓
楔
楚
楝
楞
楠
楣
楨
楫
業
楮
極
楷
楸
楹
楼
楽
概
榄
榆
榈
榉
榔
榕
榖
榛
榜
榨
榫
榭
榮
榱
榴
榷
榻
槁
槃
構
槌
槍
槎
槐
槓
様
槛
槟
槤
槭
槲
槳
槻
槽
槿
樁
樂
樊
樑
樓
標
樞
樟
模
樣
権
横
樫
樯
樱
樵
樸
樹
樺
樽
樾
橄
橇
橋
橐
橘
橙
機
橡
橢
橫
橱
橹
橼
檀
檄
檎
檐
檔
檗
檜
檢
檬
檯
檳
檸
檻
櫃
櫚
櫛
櫥
櫸
櫻
欄
權
欒
欖
欠
次
欢
欣
欧
欲
欸
欺
欽
款
歆
歇
歉
歌
歎
歐
歓
歙
歛
歡
止
正
此
步
武
歧
歩
歪
歯
歲
歳
歴
歷
歸
歹
死
歼
殁
殃
殆
殇
殉
殊
残
殒
殓
殖
殘
殞
殡
殤
殭
殯
殲
殴
段
殷
殺
殼
殿
毀
毁
毂
毅
毆
毋
母
毎
每
毒
毓
比
毕
毗
毘
毙
毛
毡
毫
毯
毽
氈
氏
氐
民
氓
气
氖
気
氙
氛
氟
氡
氢
氣
氤
氦
氧
氨
氪
氫
氮
氯
氰
氲
水
氷
永
氹
氾
汀
汁
求
汆
汇
汉
汎
汐
汕
汗
汙
汛
汝
汞
江
池
污
汤
汨
汩
汪
汰
汲
汴
汶
汹
決
汽
汾
沁
沂
沃
沅
沈
沉
沌
沏
沐
沒
沓
沖
沙
沛
沟
没
沢
沣
沥
沦
沧
沪
沫
沭
沮
沱
河
沸
油
治
沼
沽
沾
沿
況
泄
泉
泊
泌
泓
法
泗
泛
泞
泠
泡
波
泣
泥
注
泪
泫
泮
泯
泰
泱
泳
泵
泷
泸
泻
泼
泽
泾
洁
洄
洋
洒
洗
洙
洛
洞
津
洩
洪
洮
洱
洲
洵
洶
洸
洹
活
洼
洽
派
流
浃
浄
浅
浆
浇
浊
测
济
浏
浑
浒
浓
浔
浙
浚
浜
浣
浦
浩
浪
浬
浮
浯
浴
海
浸
涂
涅
涇
消
涉
涌
涎
涓
涔
涕
涙
涛
涝
涞
涟
涠
涡
涣
涤
润
涧
涨
涩
涪
涮
涯
液
涵
涸
涼
涿
淀
淄
淅
淆
淇
淋
淌
淑
淒
淖
淘
淙
淚
淞
淡
淤
淦
淨
淩
淪
淫
淬
淮
深
淳
淵
混
淹
淺
添
淼
清
済
渉
渊
渋
渍
渎
渐
渔
渗
渙
渚
減
渝
渠
渡
渣
渤
渥
渦
温
測
渭
港
渲
渴
游
渺
渾
湃
湄
湊
湍
湖
湘
湛
湟
湧
湫
湮
湯
湳
湾
湿
満
溃
溅
溉
溏
源
準
溜
溝
溟
溢
溥
溧
溪
溫
溯
溱
溴
溶
溺
溼
滁
滂
滄
滅
滇
滋
滌
滑
滓
滔
滕
滙
滚
滝
滞
滟
满
滢
滤
滥
滦
滨
滩
滬
滯
滲
滴
滷
滸
滾
滿
漁
漂
漆
漉
漏
漓
演
漕
漠
漢
漣
漩
漪
漫
漬
漯
漱
漲
漳
漸
漾
漿
潆
潇
潋
潍
潑
潔
潘
潛
潜
潞
潟
潢
潤
潦
潧
潭
潮
潰
潴
潸
潺
潼
澀
澄
澆
澈
澍
澎
澗
澜
澡
澤
澧
澱
澳
澹
激
濁
濂
濃
濑
濒
濕
濘
濛
濟
濠
濡
濤
濫
濬
濮
濯
濱
濺
濾
瀅
瀆
瀉
瀋
瀏
瀑
瀕
瀘
瀚
瀛
瀝
瀞
瀟
瀧
瀨
瀬
瀰
瀾
灌
灏
灑
灘
灝
灞
灣
火
灬
灭
灯
灰
灵
灶
灸
灼
災
灾
灿
炀
炁
炅
炉
炊
炎
炒
炔
炕
炖
炙
炜
炫
炬
炭
炮
炯
炳
炷
炸
点
為
炼
炽
烁
烂
烃
烈
烊
烏
烘
烙
烛
烟
烤
烦
烧
烨
烩
烫
烬
热
烯
烷
烹
烽
焉
焊
焕
焖
焗
焘
焙
焚
焜
無
焦
焯
焰
焱
然
焼
煅
煉
煊
煌
煎
煒
煖
煙
煜
煞
煤
煥
煦
照
煨
煩
煮
煲
煸
煽
熄
熊
熏
熒
熔
熙
熟
熠
熨
熬
熱
熵
熹
熾
燁
燃
燄
燈
燉
燊
燎
燒
燔
燕
燙
燜
營
燥
燦
燧
燭
燮
燴
燻
燼
燿
爆
爍
爐
爛
爪
爬
爭
爰
爱
爲
爵
父
爷
爸
爹
爺
爻
爽
爾
牆
片
版
牌
牍
牒
牙
牛
牝
牟
牠
牡
牢
牦
牧
物
牯
牲
牴
牵
特
牺
牽
犀
犁
犄
犊
犍
犒
犢
犧
犬
犯
状
犷
犸
犹
狀
狂
狄
狈
狎
狐
狒
狗
狙
狞
狠
狡
狩
独
狭
狮
狰
狱
狸
狹
狼
狽
猎
猕
猖
猗
猙
猛
猜
猝
猥
猩
猪
猫
猬
献
猴
猶
猷
猾
猿
獄
獅
獎
獐
獒
獗
獠
獣
獨
獭
獰
獲
獵
獷
獸
獺
獻
獼
獾
玄
率
玉
王
玑
玖
玛
玟
玠
玥
玩
玫
玮
环
现
玲
玳
玷
玺
玻
珀
珂
珅
珈
珉
珊
珍
珏
珐
珑
珙
珞
珠
珣
珥
珩
珪
班
珮
珲
珺
現
球
琅
理
琇
琉
琊
琍
琏
琐
琛
琢
琥
琦
琨
琪
琬
琮
琰
琲
琳
琴
琵
琶
琺
琼
瑀
瑁
瑄
瑋
瑕
瑗
瑙
瑚
瑛
瑜
瑞
瑟
瑠
瑣
瑤
瑩
瑪
瑯
瑰
瑶
瑾
璀
璁
璃
璇
璉
璋
璎
璐
璜
璞
璟
璧
璨
環
璽
璿
瓊
瓏
瓒
瓜
瓢
瓣
瓤
瓦
瓮
瓯
瓴
瓶
瓷
甄
甌
甕
甘
甙
甚
甜
生
產
産
甥
甦
用
甩
甫
甬
甭
甯
田
由
甲
申
电
男
甸
町
画
甾
畀
畅
界
畏
畑
畔
留
畜
畝
畢
略
畦
番
畫
異
畲
畳
畴
當
畸
畹
畿
疆
疇
疊
疏
疑
疔
疖
疗
疙
疚
疝
疟
疡
疣
疤
疥
疫
疮
疯
疱
疲
疳
疵
疸
疹
疼
疽
疾
痂
病
症
痈
痉
痊
痍
痒
痔
痕
痘
痙
痛
痞
痠
痢
痣
痤
痧
痨
痪
痫
痰
痱
痴
痹
痺
痼
痿
瘀
瘁
瘋
瘍
瘓
瘘
瘙
瘟
瘠
瘡
瘢
瘤
瘦
瘧
瘩
瘪
瘫
瘴
瘸
瘾
療
癇
癌
癒
癖
癜
癞
癡
癢
癣
癥
癫
癬
癮
癱
癲
癸
発
登
發
白
百
皂
的
皆
皇
皈
皋
皎
皑
皓
皖
皙
皚
皮
皰
皱
皴
皺
皿
盂
盃
盅
盆
盈
益
盎
盏
盐
监
盒
盔
盖
盗
盘
盛
盜
盞
盟
盡
監
盤
盥
盧
盪
目
盯
盱
盲
直
相
盹
盼
盾
省
眈
眉
看
県
眙
眞
真
眠
眦
眨
眩
眯
眶
眷
眸
眺
眼
眾
着
睁
睇
睏
睐
睑
睛
睜
睞
睡
睢
督
睥
睦
睨
睪
睫
睬
睹
睽
睾
睿
瞄
瞅
瞇
瞋
瞌
瞎
瞑
瞒
瞓
瞞
瞟
瞠
瞥
瞧
瞩
瞪
瞬
瞭
瞰
瞳
瞻
瞼
瞿
矇
矍
矗
矚
矛
矜
矢
矣
知
矩
矫
短
矮
矯
石
矶
矽
矾
矿
码
砂
砌
砍
砒
研
砖
砗
砚
砝
砣
砥
砧
砭
砰
砲
破
砷
砸
砺
砼
砾
础
硅
硐
硒
硕
硝
硫
硬
确
硯
硼
碁
碇
碉
碌
碍
碎
碑
碓
碗
碘
碚
碛
碟
碣
碧
碩
碰
碱
碳
碴
確
碼
碾
磁
磅
磊
磋
磐
磕
磚
磡
磨
磬
磯
磲
磷
磺
礁
礎
礙
礡
礦
礪
礫
礴
示
礼
社
祀
祁
祂
祇
祈
祉
祎
祐
祕
祖
祗
祚
祛
祜
祝
神
祟
祠
祢
祥
票
祭
祯
祷
祸
祺
祿
禀
禁
禄
禅
禍
禎
福
禛
禦
禧
禪
禮
禱
禹
禺
离
禽
禾
禿
秀
私
秃
秆
秉
秋
种
科
秒
秘
租
秣
秤
秦
秧
秩
秭
积
称
秸
移
秽
稀
稅
程
稍
税
稔
稗
稚
稜
稞
稟
稠
稣
種
稱
稲
稳
稷
稹
稻
稼
稽
稿
穀
穂
穆
穌
積
穎
穗
穢
穩
穫
穴
究
穷
穹
空
穿
突
窃
窄
窈
窍
窑
窒
窓
窕
窖
窗
窘
窜
窝
窟
窠
窥
窦
窨
窩
窪
窮
窯
窺
窿
竄
竅
竇
竊
立
竖
站
竜
竞
竟
章
竣
童
竭
端
競
竹
竺
竽
竿
笃
笆
笈
笋
笏
笑
笔
笙
笛
笞
笠
符
笨
第
笹
笺
笼
筆
等
筊
筋
筍
筏
筐
筑
筒
答
策
筛
筝
筠
筱
筲
筵
筷
筹
签
简
箇
箋
箍
箏
箐
箔
箕
算
箝
管
箩
箫
箭
箱
箴
箸
節
篁
範
篆
篇
築
篑
篓
篙
篝
篠
篡
篤
篩
篪
篮
篱
篷
簇
簌
簍
簡
簦
簧
簪
簫
簷
簸
簽
簾
簿
籁
籃
籌
籍
籐
籟
籠
籤
籬
籮
籲
米
类
籼
籽
粄
粉
粑
粒
粕
粗
粘
粟
粤
粥
粧
粪
粮
粱
粲
粳
粵
粹
粼
粽
精
粿
糅
糊
糍
糕
糖
糗
糙
糜
糞
糟
糠
糧
糬
糯
糰
糸
系
糾
紀
紂
約
紅
紉
紊
紋
納
紐
紓
純
紗
紘
紙
級
紛
紜
素
紡
索
紧
紫
紮
累
細
紳
紹
紺
終
絃
組
絆
経
結
絕
絞
絡
絢
給
絨
絮
統
絲
絳
絵
絶
絹
綁
綏
綑
經
継
続
綜
綠
綢
綦
綫
綬
維
綱
網
綴
綵
綸
綺
綻
綽
綾
綿
緊
緋
総
緑
緒
緘
線
緝
緞
締
緣
編
緩
緬
緯
練
緹
緻
縁
縄
縈
縛
縝
縣
縫
縮
縱
縴
縷
總
績
繁
繃
繆
繇
繋
織
繕
繚
繞
繡
繩
繪
繫
繭
繳
繹
繼
繽
纂
續
纍
纏
纓
纔
纖
纜
纠
红
纣
纤
约
级
纨
纪
纫
纬
纭
纯
纰
纱
纲
纳
纵
纶
纷
纸
纹
纺
纽
纾
线
绀
练
组
绅
细
织
终
绊
绍
绎
经
绑
绒
结
绔
绕
绘
给
绚
绛
络
绝
绞
统
绡
绢
绣
绥
绦
继
绩
绪
绫
续
绮
绯
绰
绳
维
绵
绶
绷
绸
绻
综
绽
绾
绿
缀
缄
缅
缆
缇
缈
缉
缎
缓
缔
缕
编
缘
缙
缚
缜
缝
缠
缢
缤
缥
缨
缩
缪
缭
缮
缰
缱
缴
缸
缺
缽
罂
罄
罌
罐
网
罔
罕
罗
罚
罡
罢
罩
罪
置
罰
署
罵
罷
罹
羁
羅
羈
羊
羌
美
羔
羚
羞
羟
羡
羣
群
羥
羧
羨
義
羯
羲
羸
羹
羽
羿
翁
翅
翊
翌
翎
習
翔
翘
翟
翠
翡
翦
翩
翰
翱
翳
翹
翻
翼
耀
老
考
耄
者
耆
耋
而
耍
耐
耒
耕
耗
耘
耙
耦
耨
耳
耶
耷
耸
耻
耽
耿
聂
聆
聊
聋
职
聒
联
聖
聘
聚
聞
聪
聯
聰
聲
聳
聴
聶
職
聽
聾
聿
肃
肄
肅
肆
肇
肉
肋
肌
肏
肓
肖
肘
肚
肛
肝
肠
股
肢
肤
肥
肩
肪
肮
肯
肱
育
肴
肺
肽
肾
肿
胀
胁
胃
胄
胆
背
胍
胎
胖
胚
胛
胜
胝
胞
胡
胤
胥
胧
胫
胭
胯
胰
胱
胳
胴
胶
胸
胺
能
脂
脅
脆
脇
脈
脉
脊
脍
脏
脐
脑
脓
脖
脘
脚
脛
脣
脩
脫
脯
脱
脲
脳
脸
脹
脾
腆
腈
腊
腋
腌
腎
腐
腑
腓
腔
腕
腥
腦
腩
腫
腭
腮
腰
腱
腳
腴
腸
腹
腺
腻
腼
腾
腿
膀
膈
膊
膏
膑
膘
膚
膛
膜
膝
膠
膦
膨
膩
膳
膺
膻
膽
膾
膿
臀
臂
臃
臆
臉
臊
臍
臓
臘
臟
臣
臥
臧
臨
自
臬
臭
至
致
臺
臻
臼
臾
舀
舂
舅
舆
與
興
舉
舊
舌
舍
舎
舐
舒
舔
舖
舗
舛
舜
舞
舟
航
舫
般
舰
舱
舵
舶
舷
舸
船
舺
舾
艇
艋
艘
艙
艦
艮
良
艰
艱
色
艳
艷
艹
艺
艾
节
芃
芈
芊
芋
芍
芎
芒
芙
芜
芝
芡
芥
芦
芩
芪
芫
芬
芭
芮
芯
花
芳
芷
芸
芹
芻
芽
芾
苁
苄
苇
苋
苍
苏
苑
苒
苓
苔
苕
苗
苛
苜
苞
苟
苡
苣
若
苦
苫
苯
英
苷
苹
苻
茁
茂
范
茄
茅
茉
茎
茏
茗
茜
茧
茨
茫
茬
茭
茯
茱
茲
茴
茵
茶
茸
茹
茼
荀
荃
荆
草
荊
荏
荐
荒
荔
荖
荘
荚
荞
荟
荠
荡
荣
荤
荥
荧
荨
荪
荫
药
荳
荷
荸
荻
荼
荽
莅
莆
莉
莊
莎
莒
莓
莖
莘
莞
莠
莢
莧
莪
莫
莱
莲
莴
获
莹
莺
莽
莿
菀
菁
菅
菇
菈
菊
菌
菏
菓
菖
菘
菜
菟
菠
菡
菩
華
菱
菲
菸
菽
萁
萃
萄
萊
萋
萌
萍
萎
萘
萝
萤
营
萦
萧
萨
萩
萬
萱
萵
萸
萼
落
葆
葉
著
葚
葛
葡
董
葦
葩
葫
葬
葭
葯
葱
葳
葵
葷
葺
蒂
蒋
蒐
蒔
蒙
蒜
蒞
蒟
蒡
蒨
蒲
蒸
蒹
蒻
蒼
蒿
蓁
蓄
蓆
蓉
蓋
蓑
蓓
蓖
蓝
蓟
蓦
蓬
蓮
蓼
蓿
蔑
蔓
蔔
蔗
蔘
蔚
蔡
蔣
蔥
蔫
蔬
蔭
蔵
蔷
蔺
蔻
蔼
蔽
蕁
蕃
蕈
蕉
蕊
蕎
蕙
蕤
蕨
蕩
蕪
蕭
蕲
蕴
蕻
蕾
薄
薅
薇
薈
薊
薏
薑
薔
薙
薛
薦
薨
薩
薪
薬
薯
薰
薹
藉
藍
藏
藐
藓
藕
藜
藝
藤
藥
藩
藹
藻
藿
蘆
蘇
蘊
蘋
蘑
蘚
蘭
蘸
蘼
蘿
虎
虏
虐
虑
虔
處
虚
虛
虜
虞
號
虢
虧
虫
虬
虱
虹
虻
虽
虾
蚀
蚁
蚂
蚊
蚌
蚓
蚕
蚜
蚝
蚣
蚤
蚩
蚪
蚯
蚱
蚵
蛀
蛆
蛇
蛊
蛋
蛎
蛐
蛔
蛙
蛛
蛟
蛤
蛭
蛮
蛰
蛳
蛹
蛻
蛾
蜀
蜂
蜃
蜆
蜇
蜈
蜊
蜍
蜒
蜓
蜕
蜗
蜘
蜚
蜜
蜡
蜢
蜥
蜱
蜴
蜷
蜻
蜿
蝇
蝈
蝉
蝌
蝎
蝕
蝗
蝙
蝟
蝠
蝦
蝨
蝴
蝶
蝸
蝼
螂
螃
融
螞
螢
螨
螯
螳
螺
蟀
蟄
蟆
蟋
蟎
蟑
蟒
蟠
蟬
蟲
蟹
蟻
蟾
蠅
蠍
蠔
蠕
蠛
蠟
蠡
蠢
蠣
蠱
蠶
蠹
蠻
血
衄
衅
衆
行
衍
術
衔
街
衙
衛
衝
衞
衡
衢
衣
补
表
衩
衫
衬
衮
衰
衲
衷
衹
衾
衿
袁
袂
袄
袅
袈
袋
袍
袒
袖
袜
袞
袤
袪
被
袭
袱
裁
裂
装
裆
裊
裏
裔
裕
裘
裙
補
裝
裟
裡
裤
裨
裱
裳
裴
裸
裹
製
裾
褂
複
褐
褒
褓
褔
褚
褥
褪
褫
褲
褶
褻
襁
襄
襟
襠
襪
襬
襯
襲
西
要
覃
覆
覇
見
規
覓
視
覚
覦
覧
親
覬
観
覷
覺
覽
觀
见
观
规
觅
视
览
觉
觊
觎
觐
觑
角
觞
解
觥
触
觸
言
訂
計
訊
討
訓
訕
訖
託
記
訛
訝
訟
訣
訥
訪
設
許
訳
訴
訶
診
註
証
詆
詐
詔
評
詛
詞
詠
詡
詢
詣
試
詩
詫
詬
詭
詮
詰
話
該
詳
詹
詼
誅
誇
誉
誌
認
誓
誕
誘
語
誠
誡
誣
誤
誥
誦
誨
說
説
読
誰
課
誹
誼
調
諄
談
請
諏
諒
論
諗
諜
諡
諦
諧
諫
諭
諮
諱
諳
諷
諸
諺
諾
謀
謁
謂
謄
謊
謎
謐
謔
謗
謙
講
謝
謠
謨
謬
謹
謾
譁
證
譎
譏
識
譙
譚
譜
警
譬
譯
議
譲
譴
護
譽
讀
變
讓
讚
讞
计
订
认
讥
讧
讨
让
讪
讫
训
议
讯
记
讲
讳
讴
讶
讷
许
讹
论
讼
讽
设
访
诀
证
诃
评
诅
识
诈
诉
诊
诋
词
诏
译
试
诗
诘
诙
诚
诛
话
诞
诟
诠
诡
询
诣
诤
该
详
诧
诩
诫
诬
语
误
诰
诱
诲
说
诵
诶
请
诸
诺
读
诽
课
诿
谀
谁
调
谄
谅
谆
谈
谊
谋
谌
谍
谎
谏
谐
谑
谒
谓
谔
谕
谗
谘
谙
谚
谛
谜
谟
谢
谣
谤
谥
谦
谧
谨
谩
谪
谬
谭
谯
谱
谲
谴
谶
谷
豁
豆
豇
豈
豉
豊
豌
豎
豐
豔
豚
象
豢
豪
豫
豬
豹
豺
貂
貅
貌
貓
貔
貘
貝
貞
負
財
貢
貧
貨
販
貪
貫
責
貯
貰
貳
貴
貶
買
貸
費
貼
貽
貿
賀
賁
賂
賃
賄
資
賈
賊
賑
賓
賜
賞
賠
賡
賢
賣
賤
賦
質
賬
賭
賴
賺
購
賽
贅
贈
贊
贍
贏
贓
贖
贛
贝
贞
负
贡
财
责
贤
败
账
货
质
贩
贪
贫
贬
购
贮
贯
贰
贱
贲
贴
贵
贷
贸
费
贺
贻
贼
贾
贿
赁
赂
赃
资
赅
赈
赊
赋
赌
赎
赏
赐
赓
赔
赖
赘
赚
赛
赝
赞
赠
赡
赢
赣
赤
赦
赧
赫
赭
走
赳
赴
赵
赶
起
趁
超
越
趋
趕
趙
趟
趣
趨
足
趴
趵
趸
趺
趾
跃
跄
跆
跋
跌
跎
跑
跖
跚
跛
距
跟
跡
跤
跨
跩
跪
路
跳
践
跷
跹
跺
跻
踉
踊
踌
踏
踐
踝
踞
踟
踢
踩
踪
踮
踱
踴
踵
踹
蹂
蹄
蹇
蹈
蹉
蹊
蹋
蹑
蹒
蹙
蹟
蹣
蹤
蹦
蹩
蹬
蹭
蹲
蹴
蹶
蹺
蹼
蹿
躁
躇
躉
躊
躋
躍
躏
躪
身
躬
躯
躲
躺
軀
車
軋
軌
軍
軒
軟
転
軸
軼
軽
軾
較
載
輒
輓
輔
輕
輛
輝
輟
輩
輪
輯
輸
輻
輾
輿
轄
轅
轆
轉
轍
轎
轟
车
轧
轨
轩
转
轭
轮
软
轰
轲
轴
轶
轻
轼
载
轿
较
辄
辅
辆
辇
辈
辉
辊
辍
辐
辑
输
辕
辖
辗
辘
辙
辛
辜
辞
辟
辣
辦
辨
辩
辫
辭
辮
辯
辰
辱
農
边
辺
辻
込
辽
达
迁
迂
迄
迅
过
迈
迎
运
近
返
还
这
进
远
违
连
迟
迢
迤
迥
迦
迩
迪
迫
迭
述
迴
迷
迸
迹
迺
追
退
送
适
逃
逅
逆
选
逊
逍
透
逐
递
途
逕
逗
這
通
逛
逝
逞
速
造
逢
連
逮
週
進
逵
逶
逸
逻
逼
逾
遁
遂
遅
遇
遊
運
遍
過
遏
遐
遑
遒
道
達
違
遗
遙
遛
遜
遞
遠
遢
遣
遥
遨
適
遭
遮
遲
遴
遵
遶
遷
選
遺
遼
遽
避
邀
邁
邂
邃
還
邇
邈
邊
邋
邏
邑
邓
邕
邛
邝
邢
那
邦
邨
邪
邬
邮
邯
邰
邱
邳
邵
邸
邹
邺
邻
郁
郅
郊
郎
郑
郜
郝
郡
郢
郤
郦
郧
部
郫
郭
郴
郵
郷
郸
都
鄂
鄉
鄒
鄔
鄙
鄞
鄢
鄧
鄭
鄰
鄱
鄲
鄺
酉
酊
酋
酌
配
酐
酒
酗
酚
酝
酢
酣
酥
酩
酪
酬
酮
酯
酰
酱
酵
酶
酷
酸
酿
醃
醇
醉
醋
醍
醐
醒
醚
醛
醜
醞
醣
醪
醫
醬
醮
醯
醴
醺
釀
釁
采
釉
释
釋
里
重
野
量
釐
金
釗
釘
釜
針
釣
釦
釧
釵
鈀
鈉
鈍
鈎
鈔
鈕
鈞
鈣
鈦
鈪
鈴
鈺
鈾
鉀
鉄
鉅
鉉
鉑
鉗
鉚
鉛
鉤
鉴
鉻
銀
銃
銅
銑
銓
銖
銘
銜
銬
銭
銮
銳
銷
銹
鋁
鋅
鋒
鋤
鋪
鋰
鋸
鋼
錄
錐
錘
錚
錠
錢
錦
錨
錫
錮
錯
録
錳
錶
鍊
鍋
鍍
鍛
鍥
鍰
鍵
鍺
鍾
鎂
鎊
鎌
鎏
鎔
鎖
鎗
鎚
鎧
鎬
鎮
鎳
鏈
鏖
鏗
鏘
鏞
鏟
鏡
鏢
鏤
鏽
鐘
鐮
鐲
鐳
鐵
鐸
鐺
鑄
鑊
鑑
鑒
鑣
鑫
鑰
鑲
鑼
鑽
鑾
鑿
针
钉
钊
钎
钏
钒
钓
钗
钙
钛
钜
钝
钞
钟
钠
钡
钢
钣
钤
钥
钦
钧
钨
钩
钮
钯
钰
钱
钳
钴
钵
钺
钻
钼
钾
钿
铀
铁
铂
铃
铄
铅
铆
铉
铎
铐
铛
铜
铝
铠
铡
铢
铣
铤
铨
铩
铬
铭
铮
铰
铲
铵
银
铸
铺
链
铿
销
锁
锂
锄
锅
锆
锈
锉
锋
锌
锏
锐
锑
错
锚
锟
锡
锢
锣
锤
锥
锦
锭
键
锯
锰
锲
锵
锹
锺
锻
镀
镁
镂
镇
镉
镌
镍
镐
镑
镕
镖
镗
镛
镜
镣
镭
镯
镰
镳
镶
長
长
門
閃
閉
開
閎
閏
閑
閒
間
閔
閘
閡
関
閣
閥
閨
閩
閱
閲
閹
閻
閾
闆
闇
闊
闌
闍
闔
闕
闖
闘
關
闡
闢
门
闪
闫
闭
问
闯
闰
闲
间
闵
闷
闸
闹
闺
闻
闽
闾
阀
阁
阂
阅
阆
阇
阈
阉
阎
阐
阑
阔
阕
阖
阙
阚
阜
队
阡
阪
阮
阱
防
阳
阴
阵
阶
阻
阿
陀
陂
附
际
陆
陇
陈
陋
陌
降
限
陕
陛
陝
陞
陟
陡
院
陣
除
陨
险
陪
陰
陲
陳
陵
陶
陷
陸
険
陽
隅
隆
隈
隊
隋
隍
階
随
隐
隔
隕
隘
隙
際
障
隠
隣
隧
隨
險
隱
隴
隶
隸
隻
隼
隽
难
雀
雁
雄
雅
集
雇
雉
雋
雌
雍
雎
雏
雑
雒
雕
雖
雙
雛
雜
雞
離
難
雨
雪
雯
雰
雲
雳
零
雷
雹
電
雾
需
霁
霄
霆
震
霈
霉
霊
霍
霎
霏
霑
霓
霖
霜
霞
霧
霭
霰
露
霸
霹
霽
霾
靂
靄
靈
青
靓
靖
静
靚
靛
靜
非
靠
靡
面
靥
靦
革
靳
靴
靶
靼
鞅
鞋
鞍
鞏
鞑
鞘
鞠
鞣
鞦
鞭
韆
韋
韌
韓
韜
韦
韧
韩
韬
韭
音
韵
韶
韻
響
頁
頂
頃
項
順
須
頌
預
頑
頒
頓
頗
領
頜
頡
頤
頫
頭
頰
頷
頸
頹
頻
頼
顆
題
額
顎
顏
顔
願
顛
類
顧
顫
顯
顱
顴
页
顶
顷
项
顺
须
顼
顽
顾
顿
颁
颂
预
颅
领
颇
颈
颉
颊
颌
颍
颐
频
颓
颔
颖
颗
题
颚
颛
颜
额
颞
颠
颡
颢
颤
颦
颧
風
颯
颱
颳
颶
颼
飄
飆
风
飒
飓
飕
飘
飙
飚
飛
飞
食
飢
飨
飩
飪
飯
飲
飼
飽
飾
餃
餅
餉
養
餌
餐
餒
餓
餘
餚
餛
餞
餡
館
餮
餵
餾
饅
饈
饋
饌
饍
饑
饒
饕
饗
饞
饥
饨
饪
饬
饭
饮
饯
饰
饱
饲
饴
饵
饶
饷
饺
饼
饽
饿
馀
馁
馄
馅
馆
馈
馋
馍
馏
馒
馔
首
馗
香
馥
馨
馬
馭
馮
馳
馴
駁
駄
駅
駆
駐
駒
駕
駛
駝
駭
駱
駿
騁
騎
騏
験
騙
騨
騰
騷
驀
驅
驊
驍
驒
驕
驗
驚
驛
驟
驢
驥
马
驭
驮
驯
驰
驱
驳
驴
驶
驷
驸
驹
驻
驼
驾
驿
骁
骂
骄
骅
骆
骇
骈
骊
骋
验
骏
骐
骑
骗
骚
骛
骜
骞
骠
骡
骤
骥
骧
骨
骯
骰
骶
骷
骸
骼
髂
髅
髋
髏
髒
髓
體
髖
高
髦
髪
髮
髯
髻
鬃
鬆
鬍
鬓
鬚
鬟
鬢
鬣
鬥
鬧
鬱
鬼
魁
魂
魄
魅
魇
魍
魏
魔
魘
魚
魯
魷
鮑
鮨
鮪
鮭
鮮
鯉
鯊
鯖
鯛
鯨
鯰
鯽
鰍
鰓
鰭
鰲
鰻
鰾
鱈
鱉
鱔
鱗
鱷
鱸
鱼
鱿
鲁
鲈
鲍
鲑
鲛
鲜
鲟
鲢
鲤
鲨
鲫
鲱
鲲
鲶
鲷
鲸
鳃
鳄
鳅
鳌
鳍
鳕
鳖
鳗
鳝
鳞
鳥
鳩
鳳
鳴
鳶
鴉
鴕
鴛
鴦
鴨
鴻
鴿
鵑
鵜
鵝
鵡
鵬
鵰
鵲
鶘
鶩
鶯
鶴
鷗
鷲
鷹
鷺
鸚
鸞
鸟
鸠
鸡
鸢
鸣
鸥
鸦
鸨
鸪
鸭
鸯
鸳
鸵
鸽
鸾
鸿
鹂
鹃
鹄
鹅
鹈
鹉
鹊
鹌
鹏
鹑
鹕
鹘
鹜
鹞
鹤
鹦
鹧
鹫
鹭
鹰
鹳
鹵
鹹
鹼
鹽
鹿
麂
麋
麒
麓
麗
麝
麟
麥
麦
麩
麴
麵
麸
麺
麻
麼
麽
麾
黃
黄
黍
黎
黏
黑
黒
黔
默
黛
黜
黝
點
黠
黨
黯
黴
鼋
鼎
鼐
鼓
鼠
鼬
鼹
鼻
鼾
齁
齊
齋
齐
齒
齡
齢
齣
齦
齿
龄
龅
龈
龊
龋
龌
龍
龐
龔
龕
龙
龚
龛
龜
龟
︰
︱
︶
︿
﹁
﹂
﹍
﹏
﹐
﹑
﹒
﹔
﹕
﹖
﹗
﹙
﹚
﹝
﹞
﹡
﹣
！
＂
＃
＄
％
＆
＇
（
）
＊
＋
，
－
．
／
０
１
２
３
４
５
６
７
８
９
：
；
＜
＝
＞
？
＠
［
＼
］
＾
＿
｀
ａ
ｂ
ｃ
ｄ
ｅ
ｆ
ｇ
ｈ
ｉ
ｊ
ｋ
ｌ
ｍ
ｎ
ｏ
ｐ
ｑ
ｒ
ｓ
ｔ
ｕ
ｖ
ｗ
ｘ
ｙ
ｚ
｛
｜
｝
～
｡
｢
｣
､
･
ｯ
ｰ
ｲ
ｸ
ｼ
ｽ
ﾄ
ﾉ
ﾌ
ﾗ
ﾙ
ﾝ
ﾞ
ﾟ
￣
￥
👍
🔥
😂
😎
...
yam
10
2017
12
11
2016
20
30
15
06
lofter
##s
2015
by
16
14
18
13
24
17
2014
21
##0
22
19
25
23
com
100
00
05
2013
##a
03
09
08
28
##2
50
01
04
##1
27
02
2012
##3
26
##e
07
##8
##5
##6
##4
##9
##7
29
2011
40
##t
2010
##o
##d
##i
2009
##n
app
www
the
##m
31
##c
##l
##y
##r
##g
2008
60
http
200
qq
##p
80
##f
google
pixnet
90
cookies
tripadvisor
500
##er
##k
35
##h
facebook
2007
2000
70
##b
of
##x
##u
45
300
iphone
32
1000
2006
48
ip
36
in
38
3d
##w
##ing
55
ctrip
##on
##v
33
##の
to
34
400
id
2005
it
37
windows
llc
top
99
42
39
000
led
at
##an
41
51
52
46
49
43
53
44
##z
android
58
and
59
2004
56
vr
##か
5000
2003
47
blogthis
twitter
54
##le
150
ok
2018
57
75
cn
no
ios
##in
##mm
##00
800
on
te
3000
65
2001
360
95
ig
lv
120
##ng
##を
##us
##に
pc
てす
──
600
##te
85
2002
88
##ed
html
ncc
wifi
email
64
blog
is
##10
##て
mail
online
##al
dvd
##ic
studio
##は
##℃
##ia
##と
line
vip
72
##q
98
##ce
##en
for
##is
##ra
##es
##j
usb
net
cp
1999
asia
4g
##cm
diy
new
3c
##お
ta
66
language
vs
apple
tw
86
web
##ne
ipad
62
you
##re
101
68
##tion
ps
de
bt
pony
atm
##2017
1998
67
##ch
ceo
##or
go
##na
av
pro
cafe
96
pinterest
97
63
pixstyleme3c
##ta
more
said
##2016
1997
mp3
700
##ll
nba
jun
##20
92
tv
1995
pm
61
76
nbsp
250
##ie
linux
##ma
cd
110
hd
##17
78
##ion
77
6000
am
##th
##st
94
##se
##et
69
180
gdp
my
105
81
abc
89
flash
79
one
93
1990
1996
##ck
gps
##も
##ly
web885
106
2020
91
##ge
4000
1500
xd
boss
isbn
1994
org
##ry
me
love
##11
0fork
73
##12
3g
##ter
##ar
71
82
##la
hotel
130
1970
pk
83
87
140
ie
##os
##30
##el
74
##50
seo
cpu
##ml
p2p
84
may
##る
sun
tue
internet
cc
posted
youtube
##at
##ン
##man
ii
##ル
##15
abs
nt
pdf
yahoo
ago
1980
##it
news
mac
104
##てす
##me
##り
java
1992
spa
##de
##nt
hk
all
plus
la
1993
##mb
##16
##ve
west
##da
160
air
##い
##ps
から
##to
1989
logo
htc
php
https
fi
momo
##son
sat
##ke
##80
ebd
suv
wi
day
apk
##88
##um
mv
galaxy
wiki
or
brake
##ス
1200
する
this
1991
mon
##こ
❤2017
po
##ない
javascript
life
home
june
##ss
system
900
##ー
##０
pp
1988
world
fb
4k
br
##as
ic
ai
leonardo
safari
##60
live
free
xx
wed
win7
kiehl
##co
lg
o2o
##go
us
235
1949
mm
しい
vfm
kanye
##90
##2015
##id
jr
##ey
123
rss
##sa
##ro
##am
##no
thu
fri
350
##sh
##ki
103
comments
name
##のて
##pe
##ine
max
1987
8000
uber
##mi
##ton
wordpress
office
1986
1985
##ment
107
bd
win10
##ld
##li
gmail
bb
dior
##rs
##ri
##rd
##ます
up
cad
##®
dr
して
read
##21
をお
##io
##99
url
1984
pvc
paypal
show
policy
##40
##ty
##18
with
##★
##01
txt
102
##ba
dna
from
post
mini
ar
taiwan
john
##ga
privacy
agoda
##13
##ny
word
##24
##22
##by
##ur
##hz
1982
##ang
265
cookie
netscape
108
##ka
##～
##ad
house
share
note
ibm
code
hello
nike
sim
survey
##016
1979
1950
wikia
##32
##017
5g
cbc
##tor
##kg
1983
##rt
##14
campaign
store
2500
os
##ct
##ts
##°
170
api
##ns
365
excel
##な
##ao
##ら
##し
～～
##nd
university
163
には
518
##70
##ya
##il
##25
pierre
ipo
0020
897
##23
hotels
##ian
のお
125
years
6606
##ers
##26
high
##day
time
##ay
bug
##line
##く
##す
##be
xp
talk2yam
yamservice
10000
coco
##dy
sony
##ies
1978
microsoft
david
people
##ha
1960
instagram
intel
その
##ot
iso
1981
##va
115
##mo
##land
xxx
man
co
ltxsw
##ation
baby
220
##pa
##ol
1945
7000
tag
450
##ue
msn
##31
oppo
##ト
##ca
control
##om
st
chrome
##ure
##ん
be
##き
lol
##19
した
##bo
240
lady
##100
##way
##から
4600
##ko
##do
##un
4s
corporation
168
##ni
herme
##28
ｃｐ
978
##up
##06
ui
##ds
ppt
admin
three
します
bbc
re
128
##48
ca
##015
##35
hp
##ee
tpp
##た
##ive
××
root
##cc
##ました
##ble
##ity
adobe
park
114
et
oled
city
##ex
##ler
##ap
china
##book
20000
view
##ice
global
##km
your
hong
##mg
out
##ms
ng
ebay
##29
menu
ubuntu
##cy
rom
##view
open
ktv
do
server
##lo
if
english
##ね
##５
##oo
1600
##02
step1
kong
club
135
july
inc
1976
mr
hi
##net
touch
##ls
##ii
michael
lcd
##05
##33
phone
james
step2
1300
ios9
##box
dc
##２
##ley
samsung
111
280
pokemon
css
##ent
##les
いいえ
##１
s8
atom
play
bmw
##said
sa
etf
ctrl
♥yoyo♥
##55
2025
##2014
##66
adidas
amazon
1958
##ber
##ner
visa
##77
##der
1800
connectivity
##hi
firefox
109
118
hr
so
style
mark
pop
ol
skip
1975
as
##27
##ir
##61
190
mba
##う
##ai
le
##ver
1900
cafe2017
lte
super
113
129
##ron
amd
like
##☆
are
##ster
we
##sk
paul
data
international
##ft
longchamp
ssd
good
##ート
##ti
reply
##my
↓↓↓
apr
star
##ker
source
136
js
112
get
force
photo
##one
126
##2013
##ow
link
bbs
1972
goods
##lin
python
119
##ip
game
##ics
##ません
blue
##●
520
##45
page
itunes
##03
1955
260
1968
gt
gif
618
##ff
##47
group
くたさい
about
bar
ganji
##nce
music
lee
not
1977
1971
1973
##per
an
faq
comment
##って
days
##ock
116
##bs
1974
1969
v1
player
1956
xbox
sql
fm
f1
139
##ah
210
##lv
##mp
##000
melody
1957
##３
550
17life
199
1966
xml
market
##au
##71
999
##04
what
gl
##95
##age
tips
##68
book
##ting
mysql
can
1959
230
##ung
wonderland
watch
10℃
##ction
9000
mar
mobile
1946
1962
article
##db
part
▲top
party
って
1967
1964
1948
##07
##ore
##op
この
dj
##78
##38
010
main
225
1965
##ong
art
320
ad
134
020
##73
117
pm2
japan
228
##08
ts
1963
##ica
der
sm
##36
2019
##wa
ct
##７
##や
##64
1937
homemesh
search
##85
##れは
##tv
##di
macbook
##９
##くたさい
service
##♥
type
った
750
##ier
##si
##75
##います
##ok
best
##ット
goris
lock
##った
cf
3m
big
##ut
ftp
carol
##vi
１０
1961
happy
sd
##ac
122
anti
pe
cnn
iii
1920
138
##ラ
1940
esp
jan
tags
##98
##51
august
vol
##86
154
##™
##fs
##れ
##sion
design
ac
##ム
press
jordan
ppp
that
key
check
##６
##tt
##㎡
1080p
##lt
power
##42
1952
##bc
vivi
##ック
he
133
121
jpg
##rry
201
175
3500
1947
nb
##ted
##rn
しています
1954
usd
##t00
master
##ンク
001
model
##58
al
##09
1953
##34
ram
goo
ても
##ui
127
1930
red
##ary
rpg
item
##pm
##41
270
##za
project
##2012
hot
td
blogabstract
##ger
##62
650
##44
gr2
##します
##ｍ
black
electronic
nfc
year
asus
また
html5
cindy
##hd
m3
132
esc
##od
booking
##53
fed
tvb
##81
##ina
mit
165
##いる
chan
192
distribution
next
になる
peter
bios
steam
cm
1941
にも
pk10
##ix
##65
##91
dec
nasa
##ana
icecat
00z
b1
will
##46
li
se
##ji
##み
##ard
oct
##ain
jp
##ze
##bi
cio
##56
smart
h5
##39
##port
curve
vpn
##nm
##dia
utc
##あり
12345678910
##52
rmvb
chanel
a4
miss
##and
##im
media
who
##63
she
girl
5s
124
vera
##して
class
vivo
king
##フ
##ei
national
ab
1951
5cm
888
145
ipod
ap
1100
5mm
211
ms
2756
##69
mp4
msci
##po
##89
131
mg
index
380
##bit
##out
##zz
##97
##67
158
apec
##８
photoshop
opec
￥799
ては
##96
##tes
##ast
2g
○○
##ール
￥2899
##ling
##よ
##ory
1938
##ical
kitty
content
##43
step3
##cn
win8
155
vc
1400
iphone7
robert
##した
tcl
137
beauty
##87
en
dollars
##ys
##oc
step
pay
yy
a1
##2011
##lly
##ks
##♪
1939
188
download
1944
sep
exe
ph
います
school
gb
center
pr
street
##board
uv
##37
##lan
winrar
##que
##ua
##com
1942
1936
480
gpu
##４
ettoday
fu
tom
##54
##ren
##via
149
##72
b2b
144
##79
##tch
rose
arm
mb
##49
##ial
##nn
nvidia
step4
mvp
00㎡
york
156
##イ
how
cpi
591
2765
gov
kg
joe
##xx
mandy
pa
##ser
copyright
fashion
1935
don
##け
ecu
##ist
##art
erp
wap
have
##lm
talk
##ek
##ning
##if
ch
##ite
video
1943
cs
san
iot
look
##84
##2010
##ku
october
##ux
trump
##hs
##ide
box
141
first
##ins
april
##ight
##83
185
angel
protected
aa
151
162
x1
m2
##fe
##×
##ho
size
143
min
ofo
fun
gomaji
ex
hdmi
food
dns
march
chris
kevin
##のか
##lla
##pp
##ec
ag
ems
6s
720p
##rm
##ham
off
##92
asp
team
fandom
ed
299
▌♥
##ell
info
されています
##82
sina
4066
161
##able
##ctor
330
399
315
dll
rights
ltd
idc
jul
3kg
1927
142
ma
surface
##76
##ク
～～～
304
mall
eps
146
green
##59
map
space
donald
v2
sodu
##light
1931
148
1700
まて
310
reserved
htm
##han
##57
2d
178
mod
##ise
##tions
152
ti
##shi
doc
1933
icp
055
wang
##ram
shopping
aug
##pi
##well
now
wam
b2
からお
##hu
236
1928
##gb
266
f2
##93
153
mix
##ef
##uan
bwl
##plus
##res
core
##ess
tea
5℃
hktvmall
nhk
##ate
list
##ese
301
feb
4m
inn
ての
nov
159
12345
daniel
##ci
pass
##bet
##nk
coffee
202
ssl
airbnb
##ute
fbi
woshipm
skype
ea
cg
sp
##fc
##www
yes
edge
alt
007
##94
fpga
##ght
##gs
iso9001
さい
##ile
##wood
##uo
image
lin
icon
american
##em
1932
set
says
##king
##tive
blogger
##74
なと
256
147
##ox
##zy
##red
##ium
##lf
nokia
claire
##リ
##ding
november
lohas
##500
##tic
##マ
##cs
##ある
##che
##ire
##gy
##ult
db
january
win
##カ
166
road
ptt
##ま
##つ
198
##fa
##mer
anna
pchome
はい
udn
ef
420
##time
##tte
2030
##ア
g20
white
かかります
1929
308
garden
eleven
di
##おります
chen
309b
777
172
young
cosplay
ちてない
4500
bat
##123
##tra
##ては
kindle
npc
steve
etc
##ern
##｜
call
xperia
ces
travel
sk
s7
##ous
1934
##int
みいたたけます
183
edu
file
cho
qr
##car
##our
186
##ant
##ｄ
eric
1914
rends
##jo
##する
mastercard
##2000
kb
##min
290
##ino
vista
##ris
##ud
jack
2400
##set
169
pos
1912
##her
##ou
taipei
しく
205
beta
##ませんか
232
##fi
express
255
body
##ill
aphojoy
user
december
meiki
##ick
tweet
richard
##av
##ᆫ
iphone6
##dd
ちてすか
views
##mark
321
pd
##００
times
##▲
level
##ash
10g
point
5l
##ome
208
koreanmall
##ak
george
q2
206
wma
tcp
##200
スタッフ
full
mlb
##lle
##watch
tm
run
179
911
smith
business
##und
1919
color
##tal
222
171
##less
moon
4399
##rl
update
pcb
shop
499
157
little
なし
end
##mhz
van
dsp
easy
660
##house
##key
history
##ｏ
oh
##001
##hy
##web
oem
let
was
##2009
##gg
review
##wan
182
##°c
203
uc
title
##val
united
233
2021
##ons
doi
trivago
overdope
sbs
##ance
##ち
grand
special
573032185
imf
216
wx17house
##so
##ーム
audi
##he
london
william
##rp
##ake
science
beach
cfa
amp
ps4
880
##800
##link
##hp
crm
ferragamo
bell
make
##eng
195
under
zh
photos
2300
##style
##ント
via
176
da
##gi
company
i7
##ray
thomas
370
ufo
i5
##max
plc
ben
back
research
8g
173
mike
##pc
##ッフ
september
189
##ace
vps
february
167
pantos
wp
lisa
1921
★★
jquery
night
long
offer
##berg
##news
1911
##いて
ray
fks
wto
せます
over
164
340
##all
##rus
1924
##888
##works
blogtitle
loftpermalink
##→
187
martin
test
ling
km
##め
15000
fda
v3
##ja
##ロ
ｗedding
かある
outlet
family
##ea
をこ
##top
story
##ness
salvatore
##lu
204
swift
215
room
している
oracle
##ul
1925
sam
b2c
week
pi
rock
##のは
##ａ
##けと
##ean
##300
##gle
cctv
after
chinese
##back
powered
x2
##tan
1918
##nes
##イン
canon
only
181
##zi
##las
say
##oe
184
##sd
221
##bot
##world
##zo
sky
made
top100
just
1926
pmi
802
234
gap
##vr
177
les
174
▲topoct
ball
vogue
vi
ing
ofweek
cos
##list
##ort
▲topmay
##なら
##lon
として
last
##tc
##of
##bus
##gen
real
eva
##コ
a3
nas
##lie
##ria
##coin
##bt
▲topapr
his
212
cat
nata
vive
health
⋯⋯
drive
sir
▲topmar
du
cup
##カー
##ook
##よう
##sy
alex
msg
tour
しました
3ce
##word
193
ebooks
r8
block
318
##より
2200
nice
pvp
207
months
1905
rewards
##ther
1917
0800
##xi
##チ
##sc
micro
850
gg
blogfp
op
1922
daily
m1
264
true
##bb
ml
##tar
##のお
##ky
anthony
196
253
##yo
state
218
##ara
##aa
##rc
##tz
##ston
より
gear
##eo
##ade
ge
see
1923
##win
##ura
ss
heart
##den
##ita
down
##sm
el
png
2100
610
rakuten
whatsapp
bay
dream
add
##use
680
311
pad
gucci
mpv
##ode
##fo
island
▲topjun
##▼
223
jason
214
chicago
##❤
しの
##hone
io
##れる
##ことか
sogo
be2
##ology
990
cloud
vcd
##con
2～3
##ford
##joy
##kb
##こさいます
##rade
but
##ach
docker
##ful
rfid
ul
##ase
hit
ford
##star
580
##○
１１
a2
sdk
reading
edited
##are
cmos
##mc
238
siri
light
##ella
##ため
bloomberg
##read
pizza
##ison
jimmy
##vm
college
node
journal
ba
18k
##play
245
##cer
２０
magic
##yu
191
jump
288
tt
##ings
asr
##lia
3200
step5
network
##cd
mc
いします
1234
pixstyleme
273
##600
2800
money
★★★★★
1280
１２
430
bl
みの
act
##tus
tokyo
##rial
##life
emba
##ae
saas
tcs
##rk
##wang
summer
##sp
ko
##ving
390
premium
##その
netflix
##ヒ
uk
mt
##lton
right
frank
two
209
える
##ple
##cal
021
##んな
##sen
##ville
hold
nexus
dd
##ius
てお
##mah
##なく
tila
zero
820
ce
##tin
resort
##ws
charles
old
p10
5d
report
##360
##ru
##には
bus
vans
lt
##est
pv
##レ
links
rebecca
##ツ
##dm
azure
##365
きな
limited
bit
4gb
##mon
1910
moto
##eam
213
1913
var
eos
なとの
226
blogspot
された
699
e3
dos
dm
fc
##ments
##ik
##kw
boy
##bin
##ata
960
er
##せ
219
##vin
##tu
##ula
194
##∥
station
##ろ
##ature
835
files
zara
hdr
top10
nature
950
magazine
s6
marriott
##シ
avira
case
##っと
tab
##ran
tony
##home
oculus
im
##ral
jean
saint
cry
307
rosie
##force
##ini
ice
##bert
のある
##nder
##mber
pet
2600
##◆
plurk
▲topdec
##sis
00kg
▲topnov
720
##ence
tim
##ω
##nc
##ても
##name
log
ips
great
ikea
malaysia
unix
##イト
3600
##ncy
##nie
12000
akb48
##ye
##oid
404
##chi
##いた
oa
xuehai
##1000
##orm
##rf
275
さん
##ware
##リー
980
ho
##pro
text
##era
560
bob
227
##ub
##2008
8891
scp
avi
##zen
2022
mi
wu
museum
qvod
apache
lake
jcb
▲topaug
★★★
ni
##hr
hill
302
ne
weibo
490
ruby
##ーシ
##ヶ
##row
4d
▲topjul
iv
##ish
github
306
mate
312
##スト
##lot
##ane
andrew
のハイト
##tina
t1
rf
ed2k
##vel
##900
way
final
りの
ns
5a
705
197
##メ
sweet
bytes
##ene
▲topjan
231
##cker
##2007
##px
100g
topapp
229
helpapp
rs
low
14k
g4g
care
630
ldquo
あり
##fork
leave
rm
edition
##gan
##zon
##qq
▲topsep
##google
##ism
gold
224
explorer
##zer
toyota
category
select
visual
##labels
restaurant
##md
posts
s1
##ico
もっと
angelababy
123456
217
sports
s3
mbc
1915
してくたさい
shell
x86
candy
##new
kbs
face
xl
470
##here
4a
swissinfo
v8
▲topfeb
dram
##ual
##vice
3a
##wer
sport
q1
ios10
public
int
card
##ｃ
ep
au
rt
##れた
1080
bill
##mll
kim
３０
460
wan
##uk
##ミ
x3
298
0t
scott
##ming
239
e5
##3d
h7n9
worldcat
brown
##あります
##vo
##led
##580
##ax
249
410
##ert
paris
##～6
polo
925
##lr
599
##ナ
capital
##hing
bank
cv
1g
##chat
##ｓ
##たい
adc
##ule
2m
##ｅ
digital
hotmail
268
##pad
870
bbq
quot
##ring
before
wali
##まて
mcu
2k
2b
という
costco
316
north
333
switch
##city
##ｐ
philips
##mann
management
panasonic
##cl
##vd
##ping
##rge
alice
##lk
##ましょう
css3
##ney
vision
alpha
##ular
##400
##tter
lz
にお
##ありません
mode
gre
1916
pci
##tm
237
1～2
##yan
##そ
について
##let
##キ
work
war
coach
ah
mary
##ᅵ
huang
##pt
a8
pt
follow
##berry
1895
##ew
a5
ghost
##ション
##wn
##og
south
##code
girls
##rid
action
villa
git
r11
table
games
##cket
error
##anonymoussaid
##ag
here
##ame
##gc
qa
##■
##lis
gmp
##gin
vmalife
##cher
yu
wedding
##tis
demo
dragon
530
soho
social
bye
##rant
river
orz
acer
325
##↑
##ース
##ats
261
del
##ven
440
ups
##ように
##ター
305
value
macd
yougou
##dn
661
##ano
ll
##urt
##rent
continue
script
##wen
##ect
paper
263
319
shift
##chel
##フト
##cat
258
x5
fox
243
##さん
car
aaa
##blog
loading
##yn
##tp
kuso
799
si
sns
イカせるテンマ
ヒンクテンマ3
rmb
vdc
forest
central
prime
help
ultra
##rmb
##ような
241
square
688
##しい
のないフロクに
##field
##reen
##ors
##ju
c1
start
510
##air
##map
cdn
##wo
cba
stephen
m8
100km
##get
opera
##base
##ood
vsa
com™
##aw
##ail
251
なのて
count
t2
##ᅡ
##een
2700
hop
##gp
vsc
tree
##eg
##ose
816
285
##ories
##shop
alphago
v4
1909
simon
##ᆼ
fluke62max
zip
スホンサー
##sta
louis
cr
bas
##～10
bc
##yer
hadoop
##ube
##wi
1906
0755
hola
##low
place
centre
5v
d3
##fer
252
##750
##media
281
540
0l
exchange
262
series
##ハー
##san
eb
##bank
##ｋ
q3
##nge
##mail
take
##lp
259
1888
client
east
cache
event
vincent
##ールを
きを
##nse
sui
855
adchoice
##и
##stry
##なたの
246
##zone
ga
apps
sea
##ab
248
cisco
##タ
##rner
kymco
##care
dha
##pu
##yi
minkoff
royal
p1
への
annie
269
collection
kpi
playstation
257
になります
866
bh
##bar
queen
505
radio
1904
andy
armani
##xy
manager
iherb
##ery
##share
spring
raid
johnson
1908
##ob
volvo
hall
##ball
v6
our
taylor
##hk
bi
242
##cp
kate
bo
water
technology
##rie
サイトは
277
##ona
##sl
hpv
303
gtx
hip
rdquo
jayz
stone
##lex
##rum
namespace
##やり
620
##ale
##atic
des
##erson
##ql
##ves
##type
enter
##この
##てきます
d2
##168
##mix
##bian
との
a9
jj
ky
##lc
access
movie
##hc
リストに
tower
##ration
##mit
ます
##nch
ua
tel
prefix
##o2
1907
##point
1901
ott
～10
##http
##ury
baidu
##ink
member
##logy
bigbang
nownews
##js
##shot
##tb
##こと
247
eba
##tics
##lus
ける
v5
spark
##ama
there
##ions
god
##lls
##down
hiv
##ress
burberry
day2
##kv
◆◆
jeff
related
film
edit
joseph
283
##ark
cx
32gb
order
g9
30000
##ans
##tty
s5
##bee
かあります
thread
xr
buy
sh
005
land
spotify
mx
##ari
276
##verse
×email
sf
why
##ことて
244
7headlines
nego
sunny
dom
exo
401
666
positioning
fit
rgb
##tton
278
kiss
alexa
adam
lp
みリストを
##ｇ
mp
##ties
##llow
amy
##du
np
002
institute
271
##rth
##lar
2345
590
##des
sidebar
１５
imax
site
##cky
##kit
##ime
##009
season
323
##fun
##ンター
##ひ
gogoro
a7
pu
lily
fire
twd600
##ッセーシを
いて
##vis
30ml
##cture
##をお
information
##オ
close
friday
##くれる
yi
nick
てすか
##tta
##tel
6500
##lock
cbd
economy
254
かお
267
tinker
double
375
8gb
voice
##app
oops
channel
today
985
##right
raw
xyz
##＋
jim
edm
##cent
7500
supreme
814
ds
##its
##asia
dropbox
##てすか
##tti
books
272
100ml
##tle
##ller
##ken
##more
##boy
sex
309
##dom
t3
##ider
##なります
##unch
1903
810
feel
5500
##かった
##put
により
s2
mo
##gh
men
ka
amoled
div
##tr
##n1
port
howard
##tags
ken
dnf
##nus
adsense
##а
ide
##へ
buff
thunder
##town
##ique
has
##body
auto
pin
##erry
tee
てした
295
number
##the
##013
object
psp
cool
udnbkk
16gb
##mic
miui
##tro
most
r2
##alk
##nity
1880
±0
##いました
428
s4
law
version
##oa
n1
sgs
docomo
##tf
##ack
henry
fc2
##ded
##sco
##014
##rite
286
0mm
linkedin
##ada
##now
wii
##ndy
ucbug
##◎
sputniknews
legalminer
##ika
##xp
2gb
##bu
q10
oo
b6
come
##rman
cheese
ming
maker
##gm
nikon
##fig
ppi
kelly
##ります
jchere
てきます
ted
md
003
fgo
tech
##tto
dan
soc
##gl
##len
hair
earth
640
521
img
##pper
##a1
##てきる
##ロク
acca
##ition
##ference
suite
##ig
outlook
##mond
##cation
398
##pr
279
101vip
358
##999
282
64gb
3800
345
airport
##over
284
##おり
jones
##ith
lab
##su
##いるのて
co2
town
piece
##llo
no1
vmware
24h
##qi
focus
reader
##admin
##ora
tb
false
##log
1898
know
lan
838
##ces
f4
##ume
motel
stop
##oper
na
flickr
netcomponents
##af
##─
pose
williams
local
##ound
##cg
##site
##iko
いお
274
5m
gsm
con
##ath
1902
friends
##hip
cell
317
##rey
780
cream
##cks
012
##dp
facebooktwitterpinterestgoogle
sso
324
shtml
song
swiss
##mw
##キンク
lumia
xdd
string
tiffany
522
marc
られた
insee
russell
sc
dell
##ations
ｏｋ
camera
289
##vs
##flow
##late
classic
287
##nter
stay
g1
mtv
512
##ever
##lab
##nger
qe
sata
ryan
d1
50ml
cms
##cing
su
292
3300
editor
296
##nap
security
sunday
association
##ens
##700
##bra
acg
##かり
sofascore
とは
mkv
##ign
jonathan
gary
build
labels
##oto
tesla
moba
qi
gohappy
general
ajax
1024
##かる
サイト
society
##test
##urs
wps
fedora
##ich
mozilla
328
##480
##dr
usa
urn
##lina
##ｒ
grace
##die
##try
##ader
1250
##なり
elle
570
##chen
##ᆯ
price
##ten
uhz
##ough
eq
##hen
states
push
session
balance
wow
506
##cus
##py
when
##ward
##ep
34e
wong
library
prada
##サイト
##cle
running
##ree
313
ck
date
q4
##ctive
##ool
##＞
mk
##ira
##163
388
die
secret
rq
dota
buffet
は１ヶ
e6
##ez
pan
368
ha
##card
##cha
2a
##さ
alan
day3
eye
f3
##end
france
keep
adi
rna
tvbs
##ala
solo
nova
##え
##tail
##ょう
support
##ries
##なる
##ved
base
copy
iis
fps
##ways
hero
hgih
profile
fish
mu
ssh
entertainment
chang
##wd
click
cake
##ond
pre
##tom
kic
pixel
##ov
##fl
product
6a
##pd
dear
##gate
es
yumi
audio
##²
##sky
echo
bin
where
##ture
329
##ape
find
sap
isis
##なと
nand
##101
##load
##ream
band
a6
525
never
##post
festival
50cm
##we
555
guide
314
zenfone
##ike
335
gd
forum
jessica
strong
alexander
##ould
software
allen
##ious
program
360°
else
lohasthree
##gar
することかてきます
please
##れます
rc
##ggle
##ric
bim
50000
##own
eclipse
355
brian
3ds
##side
061
361
##other
##ける
##tech
##ator
485
engine
##ged
##ｔ
plaza
##fit
cia
ngo
westbrook
shi
tbs
50mm
##みませんか
sci
291
reuters
##ily
contextlink
##hn
af
##cil
bridge
very
##cel
1890
cambridge
##ize
15g
##aid
##data
790
frm
##head
award
butler
##sun
meta
##mar
america
ps3
puma
pmid
##すか
lc
670
kitchen
##lic
オーフン5
きなしソフトサーヒス
そして
day1
future
★★★★
##text
##page
##rris
pm1
##ket
fans
##っています
1001
christian
bot
kids
trackback
##hai
c3
display
##hl
n2
1896
idea
さんも
##sent
airmail
##ug
##men
pwm
けます
028
##lution
369
852
awards
schemas
354
asics
wikipedia
font
##tional
##vy
c2
293
##れている
##dget
##ein
っている
contact
pepper
スキル
339
##～5
294
##uel
##ument
730
##hang
みてす
q5
##sue
rain
##ndi
wei
swatch
##cept
わせ
331
popular
##ste
##tag
p2
501
trc
1899
##west
##live
justin
honda
ping
messenger
##rap
v9
543
##とは
unity
appqq
はすへて
025
leo
##tone
##テ
##ass
uniqlo
##010
502
her
jane
memory
moneydj
##tical
human
12306
していると
##m2
coc
miacare
##mn
tmt
##core
vim
kk
##may
fan
target
use
too
338
435
2050
867
737
fast
##2c
services
##ope
omega
energy
##わ
pinkoi
1a
##なから
##rain
jackson
##ement
##シャンルの
374
366
そんな
p9
rd
##ᆨ
1111
##tier
##vic
zone
##│
385
690
dl
isofix
cpa
m4
322
kimi
めて
davis
##lay
lulu
##uck
050
weeks
qs
##hop
920
##ｎ
ae
##ear
～5
eia
405
##fly
korea
jpeg
boost
##ship
small
##リア
1860
eur
297
425
valley
##iel
simple
##ude
rn
k2
##ena
されます
non
patrick
しているから
##ナー
feed
5757
30g
process
well
qqmei
##thing
they
aws
lu
pink
##ters
##kin
または
board
##vertisement
wine
##ien
unicode
##dge
r1
359
##tant
いを
##twitter
##3c
cool1
される
##れて
##ｌ
isp
##012
standard
45㎡2
402
##150
matt
##fu
326
##iner
googlemsn
pixnetfacebookyahoo
##ラン
x7
886
##uce
メーカー
sao
##ev
##きました
##file
9678
403
xddd
shirt
6l
##rio
##hat
3mm
givenchy
ya
bang
##lio
monday
crystal
ロクイン
##abc
336
head
890
ubuntuforumwikilinuxpastechat
##vc
##～20
##rity
cnc
7866
ipv6
null
1897
##ost
yang
imsean
tiger
##fet
##ンス
352
##＝
dji
327
ji
maria
##come
##んて
foundation
3100
##beth
##なった
1m
601
active
##aft
##don
3p
sr
349
emma
##khz
living
415
353
1889
341
709
457
sas
x6
##face
pptv
x4
##mate
han
sophie
##jing
337
fifa
##mand
other
sale
inwedding
##gn
てきちゃいます
##mmy
##pmlast
bad
nana
nbc
してみてくたさいね
なとはお
##wu
##かあります
##あ
note7
single
##340
せからこ
してくたさい♪この
しにはとんとんワークケートを
するとあなたにもっとマッチした
ならワークケートへ
もみつかっちゃうかも
ワークケートの
##bel
window
##dio
##ht
union
age
382
１４
##ivity
##ｙ
コメント
domain
neo
##isa
##lter
5k
f5
steven
##cts
powerpoint
tft
self
g2
ft
##テル
zol
##act
mwc
381
343
もう
nbapop
408
てある
eds
ace
##room
previous
author
tomtom
il
##ets
hu
financial
☆☆☆
っています
bp
5t
chi
1gb
##hg
fairmont
cross
008
gay
h2
function
##けて
356
also
1b
625
##ータ
##raph
1894
3～5
##ils
i3
334
avenue
##host
による
##bon
##tsu
message
navigation
50g
fintech
h6
##ことを
8cm
##ject
##vas
##firm
credit
##wf
xxxx
form
##nor
##space
huawei
plan
json
sbl
##dc
machine
921
392
wish
##120
##sol
windows7
edward
##ために
development
washington
##nsis
lo
818
##sio
##ym
##bor
planet
##～8
##wt
ieee
gpa
##めて
camp
ann
gm
##tw
##oka
connect
##rss
##work
##atus
wall
chicken
soul
2mm
##times
fa
##ather
##cord
009
##eep
hitachi
gui
harry
##pan
e1
disney
##press
##ーション
wind
386
frigidaire
##tl
liu
hsu
332
basic
von
ev
いた
てきる
スホンサーサイト
learning
##ull
expedia
archives
change
##wei
santa
cut
ins
6gb
turbo
brand
cf1
508
004
return
747
##rip
h1
##nis
##をこ
128gb
##にお
3t
application
しており
emc
rx
##oon
384
quick
412
15058
wilson
wing
chapter
##bug
beyond
##cms
##dar
##oh
zoom
e2
trip
sb
##nba
rcep
342
aspx
ci
080
gc
gnu
める
##count
advanced
dance
dv
##url
##ging
367
8591
am09
shadow
battle
346
##ｉ
##cia
##という
emily
##のてす
##tation
host
ff
techorz
sars
##mini
##mporary
##ering
nc
4200
798
##next
cma
##mbps
##gas
##ift
##dot
##ィ
455
##～17
amana
##りの
426
##ros
ir
00㎡1
##eet
##ible
##↓
710
ˋ▽ˊ
##aka
dcs
iq
##ｖ
l1
##lor
maggie
##011
##iu
588
##～1
830
##gt
1tb
articles
create
##burg
##iki
database
fantasy
##rex
##cam
dlc
dean
##you
hard
path
gaming
victoria
maps
cb
##lee
##itor
overchicstoretvhome
systems
##xt
416
p3
sarah
760
##nan
407
486
x9
install
second
626
##ann
##ph
##rcle
##nic
860
##nar
ec
##とう
768
metro
chocolate
##rian
～4
##table
##しています
skin
##sn
395
mountain
##0mm
inparadise
6m
7x24
ib
4800
##jia
eeworld
creative
g5
g3
357
parker
ecfa
village
からの
18000
sylvia
サーヒス
hbl
##ques
##onsored
##x2
##きます
##v4
##tein
ie6
383
##stack
389
ver
##ads
##baby
sound
bbe
##110
##lone
##uid
ads
022
gundam
351
thinkpad
006
scrum
match
##ave
mems
##470
##oy
##なりました
##talk
glass
lamigo
span
##eme
job
##a5
jay
wade
kde
498
##lace
ocean
tvg
##covery
##r3
##ners
##rea
junior
think
##aine
cover
##ision
##sia
↓↓
##bow
msi
413
458
406
##love
711
801
soft
z2
##pl
456
1840
mobil
mind
##uy
427
nginx
##oi
めた
##rr
6221
##mple
##sson
##ーシてす
371
##nts
91tv
comhd
crv3000
##uard
1868
397
deep
lost
field
gallery
##bia
rate
spf
redis
traction
930
icloud
011
なら
fe
jose
372
##tory
into
sohu
fx
899
379
kicstart2
##hia
すく
##～3
##sit
ra
２４
##walk
##xure
500g
##pact
pacific
xa
natural
carlo
##250
##walker
1850
##can
cto
gigi
516
##サー
pen
##hoo
ob
matlab
##ｂ
##yy
13913459
##iti
mango
##bbs
sense
c5
oxford
##ニア
walker
jennifer
##ola
course
##bre
701
##pus
##rder
lucky
075
##ぁ
ivy
なお
##nia
sotheby
side
##ugh
joy
##orage
##ush
##bat
##dt
364
r9
##2d
##gio
511
country
wear
##lax
##～7
##moon
393
seven
study
411
348
lonzo
8k
##ェ
evolution
##イフ
##kk
gs
kd
##レス
arduino
344
b12
##lux
arpg
##rdon
cook
##x5
dark
five
##als
##ida
とても
sign
362
##ちの
something
20mm
##nda
387
##posted
fresh
tf
1870
422
cam
##mine
##skip
##form
##ssion
education
394
##tee
dyson
stage
##jie
want
##night
epson
pack
あります
##ppy
テリヘル
##█
wd
##eh
##rence
left
##lvin
golden
mhz
discovery
##trix
##n2
loft
##uch
##dra
##sse
speed
～1
1mdb
sorry
welcome
##urn
wave
gaga
##lmer
teddy
##160
トラックハック
せよ
611
##f2016
378
rp
##sha
rar
##あなたに
##きた
840
holiday
##ュー
373
074
##vg
##nos
##rail
gartner
gi
6p
##dium
kit
488
b3
eco
##ろう
20g
sean
##stone
autocad
nu
##np
f16
write
029
m5
##ias
images
atp
##dk
fsm
504
1350
ve
52kb
##xxx
##のに
##cake
414
unit
lim
ru
1v
##ification
published
angela
16g
analytics
ak
##ｑ
##nel
gmt
##icon
again
##₂
##bby
ios11
445
かこさいます
waze
いてす
##ハ
9985
##ust
##ティー
framework
##007
iptv
delete
52sykb
cl
wwdc
027
30cm
##fw
##ての
1389
##xon
brandt
##ses
##dragon
tc
vetements
anne
monte
modern
official
##へて
##ere
##nne
##oud
もちろん
５０
etnews
##a2
##graphy
421
863
##ちゃん
444
##rtex
##てお
l2
##gma
mount
ccd
たと
archive
morning
tan
ddos
e7
##ホ
day4
##ウ
gis
453
its
495
factory
bruce
pg
##ito
ってくたさい
guest
cdma
##lling
536
n3
しかし
3～4
mega
eyes
ro
１３
women
dac
church
##jun
singapore
##facebook
6991
starbucks
##tos
##stin
##shine
zen
##mu
tina
20℃
1893
##たけて
503
465
request
##gence
qt
##っ
1886
347
363
q7
##zzi
diary
##tore
409
##ead
468
cst
##osa
canada
agent
va
##jiang
##ちは
##ーク
##lam
sg
##nix
##sday
##よって
g6
##master
bing
##zl
charlie
１６
8mm
nb40
##ーン
thai
##ルフ
ln284ct
##itz
##2f
bonnie
##food
##lent
originals
##stro
##lts
418
∟∣
##bscribe
children
ntd
yesstyle
##かも
hmv
##tment
d5
2cm
arts
sms
##pn
##я
##いい
topios9
539
lifestyle
virtual
##ague
xz
##deo
muji
024
unt
##nnis
##ᅩ
faq1
1884
396
##ette
fly
64㎡
はしめまして
441
curry
##pop
のこ
release
##←
##◆◆
##cast
073
ありな
500ml
##ews
5c
##stle
ios7
##ima
787
dog
lenovo
##r4
roger
013
cbs
vornado
100m
417
##desk
##クok
##ald
1867
9595
2900
##van
oil
##ｘ
some
break
common
##jy
##lines
g7
twice
419
ella
nano
belle
にこ
##mes
##self
##note
jb
##ことかてきます
benz
##との
##ova
451
save
##wing
##ますのて
kai
りは
##hua
##rect
rainer
##unge
448
##0m
adsl
##かな
guestname
##uma
##kins
##zu
tokichoi
##price
county
##med
##mus
rmk
391
address
vm
えて
openload
##group
##hin
##iginal
amg
urban
##oz
jobs
emi
##public
beautiful
##sch
album
##dden
##bell
jerry
works
hostel
miller
##drive
##rmin
##１０
376
boot
828
##370
##fx
##cm～
1885
##nome
##ctionary
##oman
##lish
##cr
##hm
433
##how
432
francis
xi
c919
b5
evernote
##uc
vga
##3000
coupe
##urg
##cca
##uality
019
6g
れる
multi
##また
##ett
em
hey
##ani
##tax
##rma
inside
than
740
leonnhurt
##jin
ict
れた
bird
notes
200mm
くの
##dical
##lli
result
442
iu
ee
438
smap
gopro
##last
yin
pure
998
32g
けた
5kg
##dan
##rame
mama
##oot
bean
marketing
##hur
2l
bella
sync
xuite
##ground
515
discuz
##getrelax
##ince
##bay
##5s
cj
##イス
gmat
apt
##pass
jing
##rix
c4
rich
##とても
niusnews
##ello
bag
770
##eting
##mobile
１８
culture
015
##のてすか
377
1020
area
##ience
616
details
gp
universal
silver
dit
はお
private
ddd
u11
kanshu
##ified
fung
##nny
dx
##520
tai
475
023
##fr
##lean
3s
##pin
429
##rin
25000
ly
rick
##bility
usb3
banner
##baru
##gion
metal
dt
vdf
1871
karl
qualcomm
bear
1010
oldid
ian
jo
##tors
population
##ernel
1882
mmorpg
##mv
##bike
603
##©
ww
friend
##ager
exhibition
##del
##pods
fpx
structure
##free
##tings
kl
##rley
##copyright
##mma
california
3400
orange
yoga
4l
canmake
honey
##anda
##コメント
595
nikkie
##ルハイト
dhl
publishing
##mall
##gnet
20cm
513
##クセス
##┅
e88
970
##dog
fishbase
##!
##"
###
##$
##%
##&
##'
##(
##)
##*
##+
##,
##-
##.
##/
##:
##;
##<
##=
##>
##?
##@
##[
##\
##]
##^
##_
##{
##|
##}
##~
##£
##¤
##¥
##§
##«
##±
##³
##µ
##·
##¹
##º
##»
##¼
##ß
##æ
##÷
##ø
##đ
##ŋ
##ɔ
##ə
##ɡ
##ʰ
##ˇ
##ˈ
##ˊ
##ˋ
##ˍ
##ː
##˙
##˚
##ˢ
##α
##β
##γ
##δ
##ε
##η
##θ
##ι
##κ
##λ
##μ
##ν
##ο
##π
##ρ
##ς
##σ
##τ
##υ
##φ
##χ
##ψ
##б
##в
##г
##д
##е
##ж
##з
##к
##л
##м
##н
##о
##п
##р
##с
##т
##у
##ф
##х
##ц
##ч
##ш
##ы
##ь
##і
##ا
##ب
##ة
##ت
##د
##ر
##س
##ع
##ل
##م
##ن
##ه
##و
##ي
##۩
##ก
##ง
##น
##ม
##ย
##ร
##อ
##า
##เ
##๑
##་
##ღ
##ᄀ
##ᄁ
##ᄂ
##ᄃ
##ᄅ
##ᄆ
##ᄇ
##ᄈ
##ᄉ
##ᄋ
##ᄌ
##ᄎ
##ᄏ
##ᄐ
##ᄑ
##ᄒ
##ᅢ
##ᅣ
##ᅥ
##ᅦ
##ᅧ
##ᅨ
##ᅪ
##ᅬ
##ᅭ
##ᅮ
##ᅯ
##ᅲ
##ᅳ
##ᅴ
##ᆷ
##ᆸ
##ᆺ
##ᆻ
##ᗜ
##ᵃ
##ᵉ
##ᵍ
##ᵏ
##ᵐ
##ᵒ
##ᵘ
##‖
##„
##†
##•
##‥
##‧
## 
##‰
##′
##″
##‹
##›
##※
##‿
##⁄
##ⁱ
##⁺
##ⁿ
##₁
##₃
##₄
##€
##№
##ⅰ
##ⅱ
##ⅲ
##ⅳ
##ⅴ
##↔
##↗
##↘
##⇒
##∀
##−
##∕
##∙
##√
##∞
##∟
##∠
##∣
##∩
##∮
##∶
##∼
##∽
##≈
##≒
##≡
##≤
##≥
##≦
##≧
##≪
##≫
##⊙
##⋅
##⋈
##⋯
##⌒
##①
##②
##③
##④
##⑤
##⑥
##⑦
##⑧
##⑨
##⑩
##⑴
##⑵
##⑶
##⑷
##⑸
##⒈
##⒉
##⒊
##⒋
##ⓒ
##ⓔ
##ⓘ
##━
##┃
##┆
##┊
##┌
##└
##├
##┣
##═
##║
##╚
##╞
##╠
##╭
##╮
##╯
##╰
##╱
##╳
##▂
##▃
##▅
##▇
##▉
##▋
##▌
##▍
##▎
##□
##▪
##▫
##▬
##△
##▶
##►
##▽
##◇
##◕
##◠
##◢
##◤
##☀
##☕
##☞
##☺
##☼
##♀
##♂
##♠
##♡
##♣
##♦
##♫
##♬
##✈
##✔
##✕
##✖
##✦
##✨
##✪
##✰
##✿
##❀
##➜
##➤
##⦿
##、
##。
##〃
##々
##〇
##〈
##〉
##《
##》
##「
##」
##『
##』
##【
##】
##〓
##〔
##〕
##〖
##〗
##〜
##〝
##〞
##ぃ
##ぇ
##ぬ
##ふ
##ほ
##む
##ゃ
##ゅ
##ゆ
##ょ
##゜
##ゝ
##ァ
##ゥ
##エ
##ォ
##ケ
##サ
##セ
##ソ
##ッ
##ニ
##ヌ
##ネ
##ノ
##ヘ
##モ
##ャ
##ヤ
##ュ
##ユ
##ョ
##ヨ
##ワ
##ヲ
##・
##ヽ
##ㄅ
##ㄆ
##ㄇ
##ㄉ
##ㄋ
##ㄌ
##ㄍ
##ㄎ
##ㄏ
##ㄒ
##ㄚ
##ㄛ
##ㄞ
##ㄟ
##ㄢ
##ㄤ
##ㄥ
##ㄧ
##ㄨ
##ㆍ
##㈦
##㊣
##㗎
##一
##丁
##七
##万
##丈
##三
##上
##下
##不
##与
##丐
##丑
##专
##且
##丕
##世
##丘
##丙
##业
##丛
##东
##丝
##丞
##丟
##両
##丢
##两
##严
##並
##丧
##丨
##个
##丫
##中
##丰
##串
##临
##丶
##丸
##丹
##为
##主
##丼
##丽
##举
##丿
##乂
##乃
##久
##么
##义
##之
##乌
##乍
##乎
##乏
##乐
##乒
##乓
##乔
##乖
##乗
##乘
##乙
##乜
##九
##乞
##也
##习
##乡
##书
##乩
##买
##乱
##乳
##乾
##亀
##亂
##了
##予
##争
##事
##二
##于
##亏
##云
##互
##五
##井
##亘
##亙
##亚
##些
##亜
##亞
##亟
##亡
##亢
##交
##亥
##亦
##产
##亨
##亩
##享
##京
##亭
##亮
##亲
##亳
##亵
##人
##亿
##什
##仁
##仃
##仄
##仅
##仆
##仇
##今
##介
##仍
##从
##仏
##仑
##仓
##仔
##仕
##他
##仗
##付
##仙
##仝
##仞
##仟
##代
##令
##以
##仨
##仪
##们
##仮
##仰
##仲
##件
##价
##任
##份
##仿
##企
##伉
##伊
##伍
##伎
##伏
##伐
##休
##伕
##众
##优
##伙
##会
##伝
##伞
##伟
##传
##伢
##伤
##伦
##伪
##伫
##伯
##估
##伴
##伶
##伸
##伺
##似
##伽
##佃
##但
##佇
##佈
##位
##低
##住
##佐
##佑
##体
##佔
##何
##佗
##佘
##余
##佚
##佛
##作
##佝
##佞
##佟
##你
##佢
##佣
##佤
##佥
##佩
##佬
##佯
##佰
##佳
##併
##佶
##佻
##佼
##使
##侃
##侄
##來
##侈
##例
##侍
##侏
##侑
##侖
##侗
##供
##依
##侠
##価
##侣
##侥
##侦
##侧
##侨
##侬
##侮
##侯
##侵
##侶
##侷
##便
##係
##促
##俄
##俊
##俎
##俏
##俐
##俑
##俗
##俘
##俚
##保
##俞
##俟
##俠
##信
##俨
##俩
##俪
##俬
##俭
##修
##俯
##俱
##俳
##俸
##俺
##俾
##倆
##倉
##個
##倌
##倍
##倏
##們
##倒
##倔
##倖
##倘
##候
##倚
##倜
##借
##倡
##値
##倦
##倩
##倪
##倫
##倬
##倭
##倶
##债
##值
##倾
##偃
##假
##偈
##偉
##偌
##偎
##偏
##偕
##做
##停
##健
##側
##偵
##偶
##偷
##偻
##偽
##偿
##傀
##傅
##傍
##傑
##傘
##備
##傚
##傢
##傣
##傥
##储
##傩
##催
##傭
##傲
##傳
##債
##傷
##傻
##傾
##僅
##働
##像
##僑
##僕
##僖
##僚
##僥
##僧
##僭
##僮
##僱
##僵
##價
##僻
##儀
##儂
##億
##儆
##儉
##儋
##儒
##儕
##儘
##償
##儡
##優
##儲
##儷
##儼
##儿
##兀
##允
##元
##兄
##充
##兆
##兇
##先
##光
##克
##兌
##免
##児
##兑
##兒
##兔
##兖
##党
##兜
##兢
##入
##內
##全
##兩
##八
##公
##六
##兮
##兰
##共
##兲
##关
##兴
##兵
##其
##具
##典
##兹
##养
##兼
##兽
##冀
##内
##円
##冇
##冈
##冉
##冊
##册
##再
##冏
##冒
##冕
##冗
##写
##军
##农
##冠
##冢
##冤
##冥
##冨
##冪
##冬
##冯
##冰
##冲
##决
##况
##冶
##冷
##冻
##冼
##冽
##冾
##净
##凄
##准
##凇
##凈
##凉
##凋
##凌
##凍
##减
##凑
##凛
##凜
##凝
##几
##凡
##凤
##処
##凪
##凭
##凯
##凰
##凱
##凳
##凶
##凸
##凹
##出
##击
##函
##凿
##刀
##刁
##刃
##分
##切
##刈
##刊
##刍
##刎
##刑
##划
##列
##刘
##则
##刚
##创
##初
##删
##判
##別
##刨
##利
##刪
##别
##刮
##到
##制
##刷
##券
##刹
##刺
##刻
##刽
##剁
##剂
##剃
##則
##剉
##削
##剋
##剌
##前
##剎
##剐
##剑
##剔
##剖
##剛
##剜
##剝
##剣
##剤
##剥
##剧
##剩
##剪
##副
##割
##創
##剷
##剽
##剿
##劃
##劇
##劈
##劉
##劊
##劍
##劏
##劑
##力
##劝
##办
##功
##加
##务
##劣
##动
##助
##努
##劫
##劭
##励
##劲
##劳
##労
##劵
##効
##劾
##势
##勁
##勃
##勇
##勉
##勋
##勐
##勒
##動
##勖
##勘
##務
##勛
##勝
##勞
##募
##勢
##勤
##勧
##勳
##勵
##勸
##勺
##勻
##勾
##勿
##匀
##包
##匆
##匈
##匍
##匐
##匕
##化
##北
##匙
##匝
##匠
##匡
##匣
##匪
##匮
##匯
##匱
##匹
##区
##医
##匾
##匿
##區
##十
##千
##卅
##升
##午
##卉
##半
##卍
##华
##协
##卑
##卒
##卓
##協
##单
##卖
##南
##単
##博
##卜
##卞
##卟
##占
##卡
##卢
##卤
##卦
##卧
##卫
##卮
##卯
##印
##危
##即
##却
##卵
##卷
##卸
##卻
##卿
##厂
##厄
##厅
##历
##厉
##压
##厌
##厕
##厘
##厚
##厝
##原
##厢
##厥
##厦
##厨
##厩
##厭
##厮
##厲
##厳
##去
##县
##叁
##参
##參
##又
##叉
##及
##友
##双
##反
##収
##发
##叔
##取
##受
##变
##叙
##叛
##叟
##叠
##叡
##叢
##口
##古
##句
##另
##叨
##叩
##只
##叫
##召
##叭
##叮
##可
##台
##叱
##史
##右
##叵
##叶
##号
##司
##叹
##叻
##叼
##叽
##吁
##吃
##各
##吆
##合
##吉
##吊
##吋
##同
##名
##后
##吏
##吐
##向
##吒
##吓
##吕
##吖
##吗
##君
##吝
##吞
##吟
##吠
##吡
##否
##吧
##吨
##吩
##含
##听
##吭
##吮
##启
##吱
##吳
##吴
##吵
##吶
##吸
##吹
##吻
##吼
##吽
##吾
##呀
##呂
##呃
##呆
##呈
##告
##呋
##呎
##呐
##呓
##呕
##呗
##员
##呛
##呜
##呢
##呤
##呦
##周
##呱
##呲
##味
##呵
##呷
##呸
##呻
##呼
##命
##咀
##咁
##咂
##咄
##咆
##咋
##和
##咎
##咏
##咐
##咒
##咔
##咕
##咖
##咗
##咘
##咙
##咚
##咛
##咣
##咤
##咦
##咧
##咨
##咩
##咪
##咫
##咬
##咭
##咯
##咱
##咲
##咳
##咸
##咻
##咽
##咿
##哀
##品
##哂
##哄
##哆
##哇
##哈
##哉
##哋
##哌
##响
##哎
##哏
##哐
##哑
##哒
##哔
##哗
##哟
##員
##哥
##哦
##哧
##哨
##哩
##哪
##哭
##哮
##哲
##哺
##哼
##哽
##唁
##唄
##唆
##唇
##唉
##唏
##唐
##唑
##唔
##唠
##唤
##唧
##唬
##售
##唯
##唰
##唱
##唳
##唷
##唸
##唾
##啃
##啄
##商
##啉
##啊
##問
##啓
##啕
##啖
##啜
##啞
##啟
##啡
##啤
##啥
##啦
##啧
##啪
##啫
##啬
##啮
##啰
##啱
##啲
##啵
##啶
##啷
##啸
##啻
##啼
##啾
##喀
##喂
##喃
##善
##喆
##喇
##喉
##喊
##喋
##喎
##喏
##喔
##喘
##喙
##喚
##喜
##喝
##喟
##喧
##喪
##喫
##喬
##單
##喰
##喱
##喲
##喳
##喵
##営
##喷
##喹
##喺
##喻
##喽
##嗅
##嗆
##嗇
##嗎
##嗑
##嗒
##嗓
##嗔
##嗖
##嗚
##嗜
##嗝
##嗟
##嗡
##嗣
##嗤
##嗦
##嗨
##嗪
##嗬
##嗯
##嗰
##嗲
##嗳
##嗶
##嗷
##嗽
##嘀
##嘅
##嘆
##嘈
##嘉
##嘌
##嘍
##嘎
##嘔
##嘖
##嘗
##嘘
##嘚
##嘛
##嘜
##嘞
##嘟
##嘢
##嘣
##嘤
##嘧
##嘩
##嘭
##嘮
##嘯
##嘰
##嘱
##嘲
##嘴
##嘶
##嘸
##嘹
##嘻
##嘿
##噁
##噌
##噎
##噓
##噔
##噗
##噙
##噜
##噠
##噢
##噤
##器
##噩
##噪
##噬
##噱
##噴
##噶
##噸
##噹
##噻
##噼
##嚀
##嚇
##嚎
##嚏
##嚐
##嚓
##嚕
##嚟
##嚣
##嚥
##嚨
##嚮
##嚴
##嚷
##嚼
##囂
##囉
##囊
##囍
##囑
##囔
##囗
##囚
##四
##囝
##回
##囟
##因
##囡
##团
##団
##囤
##囧
##囪
##囫
##园
##困
##囱
##囲
##図
##围
##囹
##固
##国
##图
##囿
##圃
##圄
##圆
##圈
##國
##圍
##圏
##園
##圓
##圖
##團
##圜
##土
##圣
##圧
##在
##圩
##圭
##地
##圳
##场
##圻
##圾
##址
##坂
##均
##坊
##坍
##坎
##坏
##坐
##坑
##块
##坚
##坛
##坝
##坞
##坟
##坠
##坡
##坤
##坦
##坨
##坪
##坯
##坳
##坵
##坷
##垂
##垃
##垄
##型
##垒
##垚
##垛
##垠
##垢
##垣
##垦
##垩
##垫
##垭
##垮
##垵
##埂
##埃
##埋
##城
##埔
##埕
##埗
##域
##埠
##埤
##埵
##執
##埸
##培
##基
##埼
##堀
##堂
##堃
##堅
##堆
##堇
##堑
##堕
##堙
##堡
##堤
##堪
##堯
##堰
##報
##場
##堵
##堺
##堿
##塊
##塌
##塑
##塔
##塗
##塘
##塚
##塞
##塢
##塩
##填
##塬
##塭
##塵
##塾
##墀
##境
##墅
##墉
##墊
##墒
##墓
##増
##墘
##墙
##墜
##增
##墟
##墨
##墩
##墮
##墳
##墻
##墾
##壁
##壅
##壆
##壇
##壊
##壑
##壓
##壕
##壘
##壞
##壟
##壢
##壤
##壩
##士
##壬
##壮
##壯
##声
##売
##壳
##壶
##壹
##壺
##壽
##处
##备
##変
##复
##夏
##夔
##夕
##外
##夙
##多
##夜
##够
##夠
##夢
##夥
##大
##天
##太
##夫
##夭
##央
##夯
##失
##头
##夷
##夸
##夹
##夺
##夾
##奂
##奄
##奇
##奈
##奉
##奋
##奎
##奏
##奐
##契
##奔
##奕
##奖
##套
##奘
##奚
##奠
##奢
##奥
##奧
##奪
##奬
##奮
##女
##奴
##奶
##奸
##她
##好
##如
##妃
##妄
##妆
##妇
##妈
##妊
##妍
##妒
##妓
##妖
##妘
##妙
##妝
##妞
##妣
##妤
##妥
##妨
##妩
##妪
##妮
##妲
##妳
##妹
##妻
##妾
##姆
##姉
##姊
##始
##姍
##姐
##姑
##姒
##姓
##委
##姗
##姚
##姜
##姝
##姣
##姥
##姦
##姨
##姪
##姫
##姬
##姹
##姻
##姿
##威
##娃
##娄
##娅
##娆
##娇
##娉
##娑
##娓
##娘
##娛
##娜
##娟
##娠
##娣
##娥
##娩
##娱
##娲
##娴
##娶
##娼
##婀
##婁
##婆
##婉
##婊
##婕
##婚
##婢
##婦
##婧
##婪
##婭
##婴
##婵
##婶
##婷
##婺
##婿
##媒
##媚
##媛
##媞
##媧
##媲
##媳
##媽
##媾
##嫁
##嫂
##嫉
##嫌
##嫑
##嫔
##嫖
##嫘
##嫚
##嫡
##嫣
##嫦
##嫩
##嫲
##嫵
##嫻
##嬅
##嬉
##嬌
##嬗
##嬛
##嬢
##嬤
##嬪
##嬰
##嬴
##嬷
##嬸
##嬿
##孀
##孃
##子
##孑
##孔
##孕
##孖
##字
##存
##孙
##孚
##孛
##孜
##孝
##孟
##孢
##季
##孤
##学
##孩
##孪
##孫
##孬
##孰
##孱
##孳
##孵
##學
##孺
##孽
##孿
##宁
##它
##宅
##宇
##守
##安
##宋
##完
##宏
##宓
##宕
##宗
##官
##宙
##定
##宛
##宜
##宝
##实
##実
##宠
##审
##客
##宣
##室
##宥
##宦
##宪
##宫
##宮
##宰
##害
##宴
##宵
##家
##宸
##容
##宽
##宾
##宿
##寂
##寄
##寅
##密
##寇
##富
##寐
##寒
##寓
##寛
##寝
##寞
##察
##寡
##寢
##寥
##實
##寧
##寨
##審
##寫
##寬
##寮
##寰
##寵
##寶
##寸
##对
##寺
##寻
##导
##対
##寿
##封
##専
##射
##将
##將
##專
##尉
##尊
##尋
##對
##導
##小
##少
##尔
##尕
##尖
##尘
##尚
##尝
##尤
##尧
##尬
##就
##尴
##尷
##尸
##尹
##尺
##尻
##尼
##尽
##尾
##尿
##局
##屁
##层
##屄
##居
##屆
##屈
##屉
##届
##屋
##屌
##屍
##屎
##屏
##屐
##屑
##展
##屜
##属
##屠
##屡
##屢
##層
##履
##屬
##屯
##山
##屹
##屿
##岀
##岁
##岂
##岌
##岐
##岑
##岔
##岖
##岗
##岘
##岙
##岚
##岛
##岡
##岩
##岫
##岬
##岭
##岱
##岳
##岷
##岸
##峇
##峋
##峒
##峙
##峡
##峤
##峥
##峦
##峨
##峪
##峭
##峯
##峰
##峴
##島
##峻
##峽
##崁
##崂
##崆
##崇
##崎
##崑
##崔
##崖
##崗
##崙
##崛
##崧
##崩
##崭
##崴
##崽
##嵇
##嵊
##嵋
##嵌
##嵐
##嵘
##嵩
##嵬
##嵯
##嶂
##嶄
##嶇
##嶋
##嶙
##嶺
##嶼
##嶽
##巅
##巍
##巒
##巔
##巖
##川
##州
##巡
##巢
##工
##左
##巧
##巨
##巩
##巫
##差
##己
##已
##巳
##巴
##巷
##巻
##巽
##巾
##巿
##币
##市
##布
##帅
##帆
##师
##希
##帐
##帑
##帕
##帖
##帘
##帚
##帛
##帜
##帝
##帥
##带
##帧
##師
##席
##帮
##帯
##帰
##帳
##帶
##帷
##常
##帼
##帽
##幀
##幂
##幄
##幅
##幌
##幔
##幕
##幟
##幡
##幢
##幣
##幫
##干
##平
##年
##并
##幸
##幹
##幺
##幻
##幼
##幽
##幾
##广
##庁
##広
##庄
##庆
##庇
##床
##序
##庐
##库
##应
##底
##庖
##店
##庙
##庚
##府
##庞
##废
##庠
##度
##座
##庫
##庭
##庵
##庶
##康
##庸
##庹
##庾
##廁
##廂
##廃
##廈
##廉
##廊
##廓
##廖
##廚
##廝
##廟
##廠
##廢
##廣
##廬
##廳
##延
##廷
##建
##廿
##开
##弁
##异
##弃
##弄
##弈
##弊
##弋
##式
##弑
##弒
##弓
##弔
##引
##弗
##弘
##弛
##弟
##张
##弥
##弦
##弧
##弩
##弭
##弯
##弱
##張
##強
##弹
##强
##弼
##弾
##彅
##彆
##彈
##彌
##彎
##归
##当
##录
##彗
##彙
##彝
##形
##彤
##彥
##彦
##彧
##彩
##彪
##彫
##彬
##彭
##彰
##影
##彷
##役
##彻
##彼
##彿
##往
##征
##径
##待
##徇
##很
##徉
##徊
##律
##後
##徐
##徑
##徒
##従
##徕
##得
##徘
##徙
##徜
##從
##徠
##御
##徨
##復
##循
##徬
##微
##徳
##徴
##徵
##德
##徹
##徼
##徽
##心
##必
##忆
##忌
##忍
##忏
##忐
##忑
##忒
##忖
##志
##忘
##忙
##応
##忠
##忡
##忤
##忧
##忪
##快
##忱
##念
##忻
##忽
##忿
##怀
##态
##怂
##怅
##怆
##怎
##怏
##怒
##怔
##怕
##怖
##怙
##怜
##思
##怠
##怡
##急
##怦
##性
##怨
##怪
##怯
##怵
##总
##怼
##恁
##恃
##恆
##恋
##恍
##恐
##恒
##恕
##恙
##恚
##恢
##恣
##恤
##恥
##恨
##恩
##恪
##恫
##恬
##恭
##息
##恰
##恳
##恵
##恶
##恸
##恺
##恻
##恼
##恿
##悄
##悅
##悉
##悌
##悍
##悔
##悖
##悚
##悟
##悠
##患
##悦
##您
##悩
##悪
##悬
##悯
##悱
##悲
##悴
##悵
##悶
##悸
##悻
##悼
##悽
##情
##惆
##惇
##惊
##惋
##惑
##惕
##惘
##惚
##惜
##惟
##惠
##惡
##惦
##惧
##惨
##惩
##惫
##惬
##惭
##惮
##惯
##惰
##惱
##想
##惴
##惶
##惹
##惺
##愁
##愆
##愈
##愉
##愍
##意
##愕
##愚
##愛
##愜
##感
##愣
##愤
##愧
##愫
##愷
##愿
##慄
##慈
##態
##慌
##慎
##慑
##慕
##慘
##慚
##慟
##慢
##慣
##慧
##慨
##慫
##慮
##慰
##慳
##慵
##慶
##慷
##慾
##憂
##憊
##憋
##憎
##憐
##憑
##憔
##憚
##憤
##憧
##憨
##憩
##憫
##憬
##憲
##憶
##憾
##懂
##懇
##懈
##應
##懊
##懋
##懑
##懒
##懦
##懲
##懵
##懶
##懷
##懸
##懺
##懼
##懾
##懿
##戀
##戈
##戊
##戌
##戍
##戎
##戏
##成
##我
##戒
##戕
##或
##战
##戚
##戛
##戟
##戡
##戦
##截
##戬
##戮
##戰
##戲
##戳
##戴
##戶
##户
##戸
##戻
##戾
##房
##所
##扁
##扇
##扈
##扉
##手
##才
##扎
##扑
##扒
##打
##扔
##払
##托
##扛
##扣
##扦
##执
##扩
##扪
##扫
##扬
##扭
##扮
##扯
##扰
##扱
##扳
##扶
##批
##扼
##找
##承
##技
##抄
##抉
##把
##抑
##抒
##抓
##投
##抖
##抗
##折
##抚
##抛
##抜
##択
##抟
##抠
##抡
##抢
##护
##报
##抨
##披
##抬
##抱
##抵
##抹
##押
##抽
##抿
##拂
##拄
##担
##拆
##拇
##拈
##拉
##拋
##拌
##拍
##拎
##拐
##拒
##拓
##拔
##拖
##拗
##拘
##拙
##拚
##招
##拜
##拟
##拡
##拢
##拣
##拥
##拦
##拧
##拨
##择
##括
##拭
##拮
##拯
##拱
##拳
##拴
##拷
##拼
##拽
##拾
##拿
##持
##挂
##指
##挈
##按
##挎
##挑
##挖
##挙
##挚
##挛
##挝
##挞
##挟
##挠
##挡
##挣
##挤
##挥
##挨
##挪
##挫
##振
##挲
##挹
##挺
##挽
##挾
##捂
##捅
##捆
##捉
##捋
##捌
##捍
##捎
##捏
##捐
##捕
##捞
##损
##捡
##换
##捣
##捧
##捨
##捩
##据
##捱
##捲
##捶
##捷
##捺
##捻
##掀
##掂
##掃
##掇
##授
##掉
##掌
##掏
##掐
##排
##掖
##掘
##掙
##掛
##掠
##採
##探
##掣
##接
##控
##推
##掩
##措
##掬
##掰
##掲
##掳
##掴
##掷
##掸
##掺
##揀
##揃
##揄
##揆
##揉
##揍
##描
##提
##插
##揖
##揚
##換
##握
##揣
##揩
##揪
##揭
##揮
##援
##揶
##揸
##揹
##揽
##搀
##搁
##搂
##搅
##損
##搏
##搐
##搓
##搔
##搖
##搗
##搜
##搞
##搡
##搪
##搬
##搭
##搵
##搶
##携
##搽
##摀
##摁
##摄
##摆
##摇
##摈
##摊
##摒
##摔
##摘
##摞
##摟
##摧
##摩
##摯
##摳
##摸
##摹
##摺
##摻
##撂
##撃
##撅
##撇
##撈
##撐
##撑
##撒
##撓
##撕
##撚
##撞
##撤
##撥
##撩
##撫
##撬
##播
##撮
##撰
##撲
##撵
##撷
##撸
##撻
##撼
##撿
##擀
##擁
##擂
##擄
##擅
##擇
##擊
##擋
##操
##擎
##擒
##擔
##擘
##據
##擞
##擠
##擡
##擢
##擦
##擬
##擰
##擱
##擲
##擴
##擷
##擺
##擼
##擾
##攀
##攏
##攒
##攔
##攘
##攙
##攜
##攝
##攞
##攢
##攣
##攤
##攥
##攪
##攫
##攬
##支
##收
##攸
##改
##攻
##放
##政
##故
##效
##敌
##敍
##敎
##敏
##救
##敕
##敖
##敗
##敘
##教
##敛
##敝
##敞
##敢
##散
##敦
##敬
##数
##敲
##整
##敵
##敷
##數
##斂
##斃
##文
##斋
##斌
##斎
##斐
##斑
##斓
##斗
##料
##斛
##斜
##斟
##斡
##斤
##斥
##斧
##斩
##斫
##斬
##断
##斯
##新
##斷
##方
##於
##施
##旁
##旃
##旅
##旋
##旌
##旎
##族
##旖
##旗
##无
##既
##日
##旦
##旧
##旨
##早
##旬
##旭
##旮
##旱
##时
##旷
##旺
##旻
##昀
##昂
##昆
##昇
##昉
##昊
##昌
##明
##昏
##易
##昔
##昕
##昙
##星
##映
##春
##昧
##昨
##昭
##是
##昱
##昴
##昵
##昶
##昼
##显
##晁
##時
##晃
##晉
##晋
##晌
##晏
##晒
##晓
##晔
##晕
##晖
##晗
##晚
##晝
##晞
##晟
##晤
##晦
##晨
##晩
##普
##景
##晰
##晴
##晶
##晷
##智
##晾
##暂
##暄
##暇
##暈
##暉
##暌
##暐
##暑
##暖
##暗
##暝
##暢
##暧
##暨
##暫
##暮
##暱
##暴
##暸
##暹
##曄
##曆
##曇
##曉
##曖
##曙
##曜
##曝
##曠
##曦
##曬
##曰
##曲
##曳
##更
##書
##曹
##曼
##曾
##替
##最
##會
##月
##有
##朋
##服
##朐
##朔
##朕
##朗
##望
##朝
##期
##朦
##朧
##木
##未
##末
##本
##札
##朮
##术
##朱
##朴
##朵
##机
##朽
##杀
##杂
##权
##杆
##杈
##杉
##李
##杏
##材
##村
##杓
##杖
##杜
##杞
##束
##杠
##条
##来
##杨
##杭
##杯
##杰
##東
##杳
##杵
##杷
##杼
##松
##板
##极
##构
##枇
##枉
##枋
##析
##枕
##林
##枚
##果
##枝
##枢
##枣
##枪
##枫
##枭
##枯
##枰
##枱
##枳
##架
##枷
##枸
##柄
##柏
##某
##柑
##柒
##染
##柔
##柘
##柚
##柜
##柞
##柠
##柢
##查
##柩
##柬
##柯
##柱
##柳
##柴
##柵
##査
##柿
##栀
##栃
##栄
##栅
##标
##栈
##栉
##栋
##栎
##栏
##树
##栓
##栖
##栗
##校
##栩
##株
##样
##核
##根
##格
##栽
##栾
##桀
##桁
##桂
##桃
##桅
##框
##案
##桉
##桌
##桎
##桐
##桑
##桓
##桔
##桜
##桠
##桡
##桢
##档
##桥
##桦
##桧
##桨
##桩
##桶
##桿
##梁
##梅
##梆
##梏
##梓
##梗
##條
##梟
##梢
##梦
##梧
##梨
##梭
##梯
##械
##梳
##梵
##梶
##检
##棂
##棄
##棉
##棋
##棍
##棒
##棕
##棗
##棘
##棚
##棟
##棠
##棣
##棧
##森
##棱
##棲
##棵
##棹
##棺
##椁
##椅
##椋
##植
##椎
##椒
##検
##椪
##椭
##椰
##椹
##椽
##椿
##楂
##楊
##楓
##楔
##楚
##楝
##楞
##楠
##楣
##楨
##楫
##業
##楮
##極
##楷
##楸
##楹
##楼
##楽
##概
##榄
##榆
##榈
##榉
##榔
##榕
##榖
##榛
##榜
##榨
##榫
##榭
##榮
##榱
##榴
##榷
##榻
##槁
##槃
##構
##槌
##槍
##槎
##槐
##槓
##様
##槛
##槟
##槤
##槭
##槲
##槳
##槻
##槽
##槿
##樁
##樂
##樊
##樑
##樓
##標
##樞
##樟
##模
##樣
##権
##横
##樫
##樯
##樱
##樵
##樸
##樹
##樺
##樽
##樾
##橄
##橇
##橋
##橐
##橘
##橙
##機
##橡
##橢
##橫
##橱
##橹
##橼
##檀
##檄
##檎
##檐
##檔
##檗
##檜
##檢
##檬
##檯
##檳
##檸
##檻
##櫃
##櫚
##櫛
##櫥
##櫸
##櫻
##欄
##權
##欒
##欖
##欠
##次
##欢
##欣
##欧
##欲
##欸
##欺
##欽
##款
##歆
##歇
##歉
##歌
##歎
##歐
##歓
##歙
##歛
##歡
##止
##正
##此
##步
##武
##歧
##歩
##歪
##歯
##歲
##歳
##歴
##歷
##歸
##歹
##死
##歼
##殁
##殃
##殆
##殇
##殉
##殊
##残
##殒
##殓
##殖
##殘
##殞
##殡
##殤
##殭
##殯
##殲
##殴
##段
##殷
##殺
##殼
##殿
##毀
##毁
##毂
##毅
##毆
##毋
##母
##毎
##每
##毒
##毓
##比
##毕
##毗
##毘
##毙
##毛
##毡
##毫
##毯
##毽
##氈
##氏
##氐
##民
##氓
##气
##氖
##気
##氙
##氛
##氟
##氡
##氢
##氣
##氤
##氦
##氧
##氨
##氪
##氫
##氮
##氯
##氰
##氲
##水
##氷
##永
##氹
##氾
##汀
##汁
##求
##汆
##汇
##汉
##汎
##汐
##汕
##汗
##汙
##汛
##汝
##汞
##江
##池
##污
##汤
##汨
##汩
##汪
##汰
##汲
##汴
##汶
##汹
##決
##汽
##汾
##沁
##沂
##沃
##沅
##沈
##沉
##沌
##沏
##沐
##沒
##沓
##沖
##沙
##沛
##沟
##没
##沢
##沣
##沥
##沦
##沧
##沪
##沫
##沭
##沮
##沱
##河
##沸
##油
##治
##沼
##沽
##沾
##沿
##況
##泄
##泉
##泊
##泌
##泓
##法
##泗
##泛
##泞
##泠
##泡
##波
##泣
##泥
##注
##泪
##泫
##泮
##泯
##泰
##泱
##泳
##泵
##泷
##泸
##泻
##泼
##泽
##泾
##洁
##洄
##洋
##洒
##洗
##洙
##洛
##洞
##津
##洩
##洪
##洮
##洱
##洲
##洵
##洶
##洸
##洹
##活
##洼
##洽
##派
##流
##浃
##浄
##浅
##浆
##浇
##浊
##测
##济
##浏
##浑
##浒
##浓
##浔
##浙
##浚
##浜
##浣
##浦
##浩
##浪
##浬
##浮
##浯
##浴
##海
##浸
##涂
##涅
##涇
##消
##涉
##涌
##涎
##涓
##涔
##涕
##涙
##涛
##涝
##涞
##涟
##涠
##涡
##涣
##涤
##润
##涧
##涨
##涩
##涪
##涮
##涯
##液
##涵
##涸
##涼
##涿
##淀
##淄
##淅
##淆
##淇
##淋
##淌
##淑
##淒
##淖
##淘
##淙
##淚
##淞
##淡
##淤
##淦
##淨
##淩
##淪
##淫
##淬
##淮
##深
##淳
##淵
##混
##淹
##淺
##添
##淼
##清
##済
##渉
##渊
##渋
##渍
##渎
##渐
##渔
##渗
##渙
##渚
##減
##渝
##渠
##渡
##渣
##渤
##渥
##渦
##温
##測
##渭
##港
##渲
##渴
##游
##渺
##渾
##湃
##湄
##湊
##湍
##湖
##湘
##湛
##湟
##湧
##湫
##湮
##湯
##湳
##湾
##湿
##満
##溃
##溅
##溉
##溏
##源
##準
##溜
##溝
##溟
##溢
##溥
##溧
##溪
##溫
##溯
##溱
##溴
##溶
##溺
##溼
##滁
##滂
##滄
##滅
##滇
##滋
##滌
##滑
##滓
##滔
##滕
##滙
##滚
##滝
##滞
##滟
##满
##滢
##滤
##滥
##滦
##滨
##滩
##滬
##滯
##滲
##滴
##滷
##滸
##滾
##滿
##漁
##漂
##漆
##漉
##漏
##漓
##演
##漕
##漠
##漢
##漣
##漩
##漪
##漫
##漬
##漯
##漱
##漲
##漳
##漸
##漾
##漿
##潆
##潇
##潋
##潍
##潑
##潔
##潘
##潛
##潜
##潞
##潟
##潢
##潤
##潦
##潧
##潭
##潮
##潰
##潴
##潸
##潺
##潼
##澀
##澄
##澆
##澈
##澍
##澎
##澗
##澜
##澡
##澤
##澧
##澱
##澳
##澹
##激
##濁
##濂
##濃
##濑
##濒
##濕
##濘
##濛
##濟
##濠
##濡
##濤
##濫
##濬
##濮
##濯
##濱
##濺
##濾
##瀅
##瀆
##瀉
##瀋
##瀏
##瀑
##瀕
##瀘
##瀚
##瀛
##瀝
##瀞
##瀟
##瀧
##瀨
##瀬
##瀰
##瀾
##灌
##灏
##灑
##灘
##灝
##灞
##灣
##火
##灬
##灭
##灯
##灰
##灵
##灶
##灸
##灼
##災
##灾
##灿
##炀
##炁
##炅
##炉
##炊
##炎
##炒
##炔
##炕
##炖
##炙
##炜
##炫
##炬
##炭
##炮
##炯
##炳
##炷
##炸
##点
##為
##炼
##炽
##烁
##烂
##烃
##烈
##烊
##烏
##烘
##烙
##烛
##烟
##烤
##烦
##烧
##烨
##烩
##烫
##烬
##热
##烯
##烷
##烹
##烽
##焉
##焊
##焕
##焖
##焗
##焘
##焙
##焚
##焜
##無
##焦
##焯
##焰
##焱
##然
##焼
##煅
##煉
##煊
##煌
##煎
##煒
##煖
##煙
##煜
##煞
##煤
##煥
##煦
##照
##煨
##煩
##煮
##煲
##煸
##煽
##熄
##熊
##熏
##熒
##熔
##熙
##熟
##熠
##熨
##熬
##熱
##熵
##熹
##熾
##燁
##燃
##燄
##燈
##燉
##燊
##燎
##燒
##燔
##燕
##燙
##燜
##營
##燥
##燦
##燧
##燭
##燮
##燴
##燻
##燼
##燿
##爆
##爍
##爐
##爛
##爪
##爬
##爭
##爰
##爱
##爲
##爵
##父
##爷
##爸
##爹
##爺
##爻
##爽
##爾
##牆
##片
##版
##牌
##牍
##牒
##牙
##牛
##牝
##牟
##牠
##牡
##牢
##牦
##牧
##物
##牯
##牲
##牴
##牵
##特
##牺
##牽
##犀
##犁
##犄
##犊
##犍
##犒
##犢
##犧
##犬
##犯
##状
##犷
##犸
##犹
##狀
##狂
##狄
##狈
##狎
##狐
##狒
##狗
##狙
##狞
##狠
##狡
##狩
##独
##狭
##狮
##狰
##狱
##狸
##狹
##狼
##狽
##猎
##猕
##猖
##猗
##猙
##猛
##猜
##猝
##猥
##猩
##猪
##猫
##猬
##献
##猴
##猶
##猷
##猾
##猿
##獄
##獅
##獎
##獐
##獒
##獗
##獠
##獣
##獨
##獭
##獰
##獲
##獵
##獷
##獸
##獺
##獻
##獼
##獾
##玄
##率
##玉
##王
##玑
##玖
##玛
##玟
##玠
##玥
##玩
##玫
##玮
##环
##现
##玲
##玳
##玷
##玺
##玻
##珀
##珂
##珅
##珈
##珉
##珊
##珍
##珏
##珐
##珑
##珙
##珞
##珠
##珣
##珥
##珩
##珪
##班
##珮
##珲
##珺
##現
##球
##琅
##理
##琇
##琉
##琊
##琍
##琏
##琐
##琛
##琢
##琥
##琦
##琨
##琪
##琬
##琮
##琰
##琲
##琳
##琴
##琵
##琶
##琺
##琼
##瑀
##瑁
##瑄
##瑋
##瑕
##瑗
##瑙
##瑚
##瑛
##瑜
##瑞
##瑟
##瑠
##瑣
##瑤
##瑩
##瑪
##瑯
##瑰
##瑶
##瑾
##璀
##璁
##璃
##璇
##璉
##璋
##璎
##璐
##璜
##璞
##璟
##璧
##璨
##環
##璽
##璿
##瓊
##瓏
##瓒
##瓜
##瓢
##瓣
##瓤
##瓦
##瓮
##瓯
##瓴
##瓶
##瓷
##甄
##甌
##甕
##甘
##甙
##甚
##甜
##生
##產
##産
##甥
##甦
##用
##甩
##甫
##甬
##甭
##甯
##田
##由
##甲
##申
##电
##男
##甸
##町
##画
##甾
##畀
##畅
##界
##畏
##畑
##畔
##留
##畜
##畝
##畢
##略
##畦
##番
##畫
##異
##畲
##畳
##畴
##當
##畸
##畹
##畿
##疆
##疇
##疊
##疏
##疑
##疔
##疖
##疗
##疙
##疚
##疝
##疟
##疡
##疣
##疤
##疥
##疫
##疮
##疯
##疱
##疲
##疳
##疵
##疸
##疹
##疼
##疽
##疾
##痂
##病
##症
##痈
##痉
##痊
##痍
##痒
##痔
##痕
##痘
##痙
##痛
##痞
##痠
##痢
##痣
##痤
##痧
##痨
##痪
##痫
##痰
##痱
##痴
##痹
##痺
##痼
##痿
##瘀
##瘁
##瘋
##瘍
##瘓
##瘘
##瘙
##瘟
##瘠
##瘡
##瘢
##瘤
##瘦
##瘧
##瘩
##瘪
##瘫
##瘴
##瘸
##瘾
##療
##癇
##癌
##癒
##癖
##癜
##癞
##癡
##癢
##癣
##癥
##癫
##癬
##癮
##癱
##癲
##癸
##発
##登
##發
##白
##百
##皂
##的
##皆
##皇
##皈
##皋
##皎
##皑
##皓
##皖
##皙
##皚
##皮
##皰
##皱
##皴
##皺
##皿
##盂
##盃
##盅
##盆
##盈
##益
##盎
##盏
##盐
##监
##盒
##盔
##盖
##盗
##盘
##盛
##盜
##盞
##盟
##盡
##監
##盤
##盥
##盧
##盪
##目
##盯
##盱
##盲
##直
##相
##盹
##盼
##盾
##省
##眈
##眉
##看
##県
##眙
##眞
##真
##眠
##眦
##眨
##眩
##眯
##眶
##眷
##眸
##眺
##眼
##眾
##着
##睁
##睇
##睏
##睐
##睑
##睛
##睜
##睞
##睡
##睢
##督
##睥
##睦
##睨
##睪
##睫
##睬
##睹
##睽
##睾
##睿
##瞄
##瞅
##瞇
##瞋
##瞌
##瞎
##瞑
##瞒
##瞓
##瞞
##瞟
##瞠
##瞥
##瞧
##瞩
##瞪
##瞬
##瞭
##瞰
##瞳
##瞻
##瞼
##瞿
##矇
##矍
##矗
##矚
##矛
##矜
##矢
##矣
##知
##矩
##矫
##短
##矮
##矯
##石
##矶
##矽
##矾
##矿
##码
##砂
##砌
##砍
##砒
##研
##砖
##砗
##砚
##砝
##砣
##砥
##砧
##砭
##砰
##砲
##破
##砷
##砸
##砺
##砼
##砾
##础
##硅
##硐
##硒
##硕
##硝
##硫
##硬
##确
##硯
##硼
##碁
##碇
##碉
##碌
##碍
##碎
##碑
##碓
##碗
##碘
##碚
##碛
##碟
##碣
##碧
##碩
##碰
##碱
##碳
##碴
##確
##碼
##碾
##磁
##磅
##磊
##磋
##磐
##磕
##磚
##磡
##磨
##磬
##磯
##磲
##磷
##磺
##礁
##礎
##礙
##礡
##礦
##礪
##礫
##礴
##示
##礼
##社
##祀
##祁
##祂
##祇
##祈
##祉
##祎
##祐
##祕
##祖
##祗
##祚
##祛
##祜
##祝
##神
##祟
##祠
##祢
##祥
##票
##祭
##祯
##祷
##祸
##祺
##祿
##禀
##禁
##禄
##禅
##禍
##禎
##福
##禛
##禦
##禧
##禪
##禮
##禱
##禹
##禺
##离
##禽
##禾
##禿
##秀
##私
##秃
##秆
##秉
##秋
##种
##科
##秒
##秘
##租
##秣
##秤
##秦
##秧
##秩
##秭
##积
##称
##秸
##移
##秽
##稀
##稅
##程
##稍
##税
##稔
##稗
##稚
##稜
##稞
##稟
##稠
##稣
##種
##稱
##稲
##稳
##稷
##稹
##稻
##稼
##稽
##稿
##穀
##穂
##穆
##穌
##積
##穎
##穗
##穢
##穩
##穫
##穴
##究
##穷
##穹
##空
##穿
##突
##窃
##窄
##窈
##窍
##窑
##窒
##窓
##窕
##窖
##窗
##窘
##窜
##窝
##窟
##窠
##窥
##窦
##窨
##窩
##窪
##窮
##窯
##窺
##窿
##竄
##竅
##竇
##竊
##立
##竖
##站
##竜
##竞
##竟
##章
##竣
##童
##竭
##端
##競
##竹
##竺
##竽
##竿
##笃
##笆
##笈
##笋
##笏
##笑
##笔
##笙
##笛
##笞
##笠
##符
##笨
##第
##笹
##笺
##笼
##筆
##等
##筊
##筋
##筍
##筏
##筐
##筑
##筒
##答
##策
##筛
##筝
##筠
##筱
##筲
##筵
##筷
##筹
##签
##简
##箇
##箋
##箍
##箏
##箐
##箔
##箕
##算
##箝
##管
##箩
##箫
##箭
##箱
##箴
##箸
##節
##篁
##範
##篆
##篇
##築
##篑
##篓
##篙
##篝
##篠
##篡
##篤
##篩
##篪
##篮
##篱
##篷
##簇
##簌
##簍
##簡
##簦
##簧
##簪
##簫
##簷
##簸
##簽
##簾
##簿
##籁
##籃
##籌
##籍
##籐
##籟
##籠
##籤
##籬
##籮
##籲
##米
##类
##籼
##籽
##粄
##粉
##粑
##粒
##粕
##粗
##粘
##粟
##粤
##粥
##粧
##粪
##粮
##粱
##粲
##粳
##粵
##粹
##粼
##粽
##精
##粿
##糅
##糊
##糍
##糕
##糖
##糗
##糙
##糜
##糞
##糟
##糠
##糧
##糬
##糯
##糰
##糸
##系
##糾
##紀
##紂
##約
##紅
##紉
##紊
##紋
##納
##紐
##紓
##純
##紗
##紘
##紙
##級
##紛
##紜
##素
##紡
##索
##紧
##紫
##紮
##累
##細
##紳
##紹
##紺
##終
##絃
##組
##絆
##経
##結
##絕
##絞
##絡
##絢
##給
##絨
##絮
##統
##絲
##絳
##絵
##絶
##絹
##綁
##綏
##綑
##經
##継
##続
##綜
##綠
##綢
##綦
##綫
##綬
##維
##綱
##網
##綴
##綵
##綸
##綺
##綻
##綽
##綾
##綿
##緊
##緋
##総
##緑
##緒
##緘
##線
##緝
##緞
##締
##緣
##編
##緩
##緬
##緯
##練
##緹
##緻
##縁
##縄
##縈
##縛
##縝
##縣
##縫
##縮
##縱
##縴
##縷
##總
##績
##繁
##繃
##繆
##繇
##繋
##織
##繕
##繚
##繞
##繡
##繩
##繪
##繫
##繭
##繳
##繹
##繼
##繽
##纂
##續
##纍
##纏
##纓
##纔
##纖
##纜
##纠
##红
##纣
##纤
##约
##级
##纨
##纪
##纫
##纬
##纭
##纯
##纰
##纱
##纲
##纳
##纵
##纶
##纷
##纸
##纹
##纺
##纽
##纾
##线
##绀
##练
##组
##绅
##细
##织
##终
##绊
##绍
##绎
##经
##绑
##绒
##结
##绔
##绕
##绘
##给
##绚
##绛
##络
##绝
##绞
##统
##绡
##绢
##绣
##绥
##绦
##继
##绩
##绪
##绫
##续
##绮
##绯
##绰
##绳
##维
##绵
##绶
##绷
##绸
##绻
##综
##绽
##绾
##绿
##缀
##缄
##缅
##缆
##缇
##缈
##缉
##缎
##缓
##缔
##缕
##编
##缘
##缙
##缚
##缜
##缝
##缠
##缢
##缤
##缥
##缨
##缩
##缪
##缭
##缮
##缰
##缱
##缴
##缸
##缺
##缽
##罂
##罄
##罌
##罐
##网
##罔
##罕
##罗
##罚
##罡
##罢
##罩
##罪
##置
##罰
##署
##罵
##罷
##罹
##羁
##羅
##羈
##羊
##羌
##美
##羔
##羚
##羞
##羟
##羡
##羣
##群
##羥
##羧
##羨
##義
##羯
##羲
##羸
##羹
##羽
##羿
##翁
##翅
##翊
##翌
##翎
##習
##翔
##翘
##翟
##翠
##翡
##翦
##翩
##翰
##翱
##翳
##翹
##翻
##翼
##耀
##老
##考
##耄
##者
##耆
##耋
##而
##耍
##耐
##耒
##耕
##耗
##耘
##耙
##耦
##耨
##耳
##耶
##耷
##耸
##耻
##耽
##耿
##聂
##聆
##聊
##聋
##职
##聒
##联
##聖
##聘
##聚
##聞
##聪
##聯
##聰
##聲
##聳
##聴
##聶
##職
##聽
##聾
##聿
##肃
##肄
##肅
##肆
##肇
##肉
##肋
##肌
##肏
##肓
##肖
##肘
##肚
##肛
##肝
##肠
##股
##肢
##肤
##肥
##肩
##肪
##肮
##肯
##肱
##育
##肴
##肺
##肽
##肾
##肿
##胀
##胁
##胃
##胄
##胆
##背
##胍
##胎
##胖
##胚
##胛
##胜
##胝
##胞
##胡
##胤
##胥
##胧
##胫
##胭
##胯
##胰
##胱
##胳
##胴
##胶
##胸
##胺
##能
##脂
##脅
##脆
##脇
##脈
##脉
##脊
##脍
##脏
##脐
##脑
##脓
##脖
##脘
##脚
##脛
##脣
##脩
##脫
##脯
##脱
##脲
##脳
##脸
##脹
##脾
##腆
##腈
##腊
##腋
##腌
##腎
##腐
##腑
##腓
##腔
##腕
##腥
##腦
##腩
##腫
##腭
##腮
##腰
##腱
##腳
##腴
##腸
##腹
##腺
##腻
##腼
##腾
##腿
##膀
##膈
##膊
##膏
##膑
##膘
##膚
##膛
##膜
##膝
##膠
##膦
##膨
##膩
##膳
##膺
##膻
##膽
##膾
##膿
##臀
##臂
##臃
##臆
##臉
##臊
##臍
##臓
##臘
##臟
##臣
##臥
##臧
##臨
##自
##臬
##臭
##至
##致
##臺
##臻
##臼
##臾
##舀
##舂
##舅
##舆
##與
##興
##舉
##舊
##舌
##舍
##舎
##舐
##舒
##舔
##舖
##舗
##舛
##舜
##舞
##舟
##航
##舫
##般
##舰
##舱
##舵
##舶
##舷
##舸
##船
##舺
##舾
##艇
##艋
##艘
##艙
##艦
##艮
##良
##艰
##艱
##色
##艳
##艷
##艹
##艺
##艾
##节
##芃
##芈
##芊
##芋
##芍
##芎
##芒
##芙
##芜
##芝
##芡
##芥
##芦
##芩
##芪
##芫
##芬
##芭
##芮
##芯
##花
##芳
##芷
##芸
##芹
##芻
##芽
##芾
##苁
##苄
##苇
##苋
##苍
##苏
##苑
##苒
##苓
##苔
##苕
##苗
##苛
##苜
##苞
##苟
##苡
##苣
##若
##苦
##苫
##苯
##英
##苷
##苹
##苻
##茁
##茂
##范
##茄
##茅
##茉
##茎
##茏
##茗
##茜
##茧
##茨
##茫
##茬
##茭
##茯
##茱
##茲
##茴
##茵
##茶
##茸
##茹
##茼
##荀
##荃
##荆
##草
##荊
##荏
##荐
##荒
##荔
##荖
##荘
##荚
##荞
##荟
##荠
##荡
##荣
##荤
##荥
##荧
##荨
##荪
##荫
##药
##荳
##荷
##荸
##荻
##荼
##荽
##莅
##莆
##莉
##莊
##莎
##莒
##莓
##莖
##莘
##莞
##莠
##莢
##莧
##莪
##莫
##莱
##莲
##莴
##获
##莹
##莺
##莽
##莿
##菀
##菁
##菅
##菇
##菈
##菊
##菌
##菏
##菓
##菖
##菘
##菜
##菟
##菠
##菡
##菩
##華
##菱
##菲
##菸
##菽
##萁
##萃
##萄
##萊
##萋
##萌
##萍
##萎
##萘
##萝
##萤
##营
##萦
##萧
##萨
##萩
##萬
##萱
##萵
##萸
##萼
##落
##葆
##葉
##著
##葚
##葛
##葡
##董
##葦
##葩
##葫
##葬
##葭
##葯
##葱
##葳
##葵
##葷
##葺
##蒂
##蒋
##蒐
##蒔
##蒙
##蒜
##蒞
##蒟
##蒡
##蒨
##蒲
##蒸
##蒹
##蒻
##蒼
##蒿
##蓁
##蓄
##蓆
##蓉
##蓋
##蓑
##蓓
##蓖
##蓝
##蓟
##蓦
##蓬
##蓮
##蓼
##蓿
##蔑
##蔓
##蔔
##蔗
##蔘
##蔚
##蔡
##蔣
##蔥
##蔫
##蔬
##蔭
##蔵
##蔷
##蔺
##蔻
##蔼
##蔽
##蕁
##蕃
##蕈
##蕉
##蕊
##蕎
##蕙
##蕤
##蕨
##蕩
##蕪
##蕭
##蕲
##蕴
##蕻
##蕾
##薄
##薅
##薇
##薈
##薊
##薏
##薑
##薔
##薙
##薛
##薦
##薨
##薩
##薪
##薬
##薯
##薰
##薹
##藉
##藍
##藏
##藐
##藓
##藕
##藜
##藝
##藤
##藥
##藩
##藹
##藻
##藿
##蘆
##蘇
##蘊
##蘋
##蘑
##蘚
##蘭
##蘸
##蘼
##蘿
##虎
##虏
##虐
##虑
##虔
##處
##虚
##虛
##虜
##虞
##號
##虢
##虧
##虫
##虬
##虱
##虹
##虻
##虽
##虾
##蚀
##蚁
##蚂
##蚊
##蚌
##蚓
##蚕
##蚜
##蚝
##蚣
##蚤
##蚩
##蚪
##蚯
##蚱
##蚵
##蛀
##蛆
##蛇
##蛊
##蛋
##蛎
##蛐
##蛔
##蛙
##蛛
##蛟
##蛤
##蛭
##蛮
##蛰
##蛳
##蛹
##蛻
##蛾
##蜀
##蜂
##蜃
##蜆
##蜇
##蜈
##蜊
##蜍
##蜒
##蜓
##蜕
##蜗
##蜘
##蜚
##蜜
##蜡
##蜢
##蜥
##蜱
##蜴
##蜷
##蜻
##蜿
##蝇
##蝈
##蝉
##蝌
##蝎
##蝕
##蝗
##蝙
##蝟
##蝠
##蝦
##蝨
##蝴
##蝶
##蝸
##蝼
##螂
##螃
##融
##螞
##螢
##螨
##螯
##螳
##螺
##蟀
##蟄
##蟆
##蟋
##蟎
##蟑
##蟒
##蟠
##蟬
##蟲
##蟹
##蟻
##蟾
##蠅
##蠍
##蠔
##蠕
##蠛
##蠟
##蠡
##蠢
##蠣
##蠱
##蠶
##蠹
##蠻
##血
##衄
##衅
##衆
##行
##衍
##術
##衔
##街
##衙
##衛
##衝
##衞
##衡
##衢
##衣
##补
##表
##衩
##衫
##衬
##衮
##衰
##衲
##衷
##衹
##衾
##衿
##袁
##袂
##袄
##袅
##袈
##袋
##袍
##袒
##袖
##袜
##袞
##袤
##袪
##被
##袭
##袱
##裁
##裂
##装
##裆
##裊
##裏
##裔
##裕
##裘
##裙
##補
##裝
##裟
##裡
##裤
##裨
##裱
##裳
##裴
##裸
##裹
##製
##裾
##褂
##複
##褐
##褒
##褓
##褔
##褚
##褥
##褪
##褫
##褲
##褶
##褻
##襁
##襄
##襟
##襠
##襪
##襬
##襯
##襲
##西
##要
##覃
##覆
##覇
##見
##規
##覓
##視
##覚
##覦
##覧
##親
##覬
##観
##覷
##覺
##覽
##觀
##见
##观
##规
##觅
##视
##览
##觉
##觊
##觎
##觐
##觑
##角
##觞
##解
##觥
##触
##觸
##言
##訂
##計
##訊
##討
##訓
##訕
##訖
##託
##記
##訛
##訝
##訟
##訣
##訥
##訪
##設
##許
##訳
##訴
##訶
##診
##註
##証
##詆
##詐
##詔
##評
##詛
##詞
##詠
##詡
##詢
##詣
##試
##詩
##詫
##詬
##詭
##詮
##詰
##話
##該
##詳
##詹
##詼
##誅
##誇
##誉
##誌
##認
##誓
##誕
##誘
##語
##誠
##誡
##誣
##誤
##誥
##誦
##誨
##說
##説
##読
##誰
##課
##誹
##誼
##調
##諄
##談
##請
##諏
##諒
##論
##諗
##諜
##諡
##諦
##諧
##諫
##諭
##諮
##諱
##諳
##諷
##諸
##諺
##諾
##謀
##謁
##謂
##謄
##謊
##謎
##謐
##謔
##謗
##謙
##講
##謝
##謠
##謨
##謬
##謹
##謾
##譁
##證
##譎
##譏
##識
##譙
##譚
##譜
##警
##譬
##譯
##議
##譲
##譴
##護
##譽
##讀
##變
##讓
##讚
##讞
##计
##订
##认
##讥
##讧
##讨
##让
##讪
##讫
##训
##议
##讯
##记
##讲
##讳
##讴
##讶
##讷
##许
##讹
##论
##讼
##讽
##设
##访
##诀
##证
##诃
##评
##诅
##识
##诈
##诉
##诊
##诋
##词
##诏
##译
##试
##诗
##诘
##诙
##诚
##诛
##话
##诞
##诟
##诠
##诡
##询
##诣
##诤
##该
##详
##诧
##诩
##诫
##诬
##语
##误
##诰
##诱
##诲
##说
##诵
##诶
##请
##诸
##诺
##读
##诽
##课
##诿
##谀
##谁
##调
##谄
##谅
##谆
##谈
##谊
##谋
##谌
##谍
##谎
##谏
##谐
##谑
##谒
##谓
##谔
##谕
##谗
##谘
##谙
##谚
##谛
##谜
##谟
##谢
##谣
##谤
##谥
##谦
##谧
##谨
##谩
##谪
##谬
##谭
##谯
##谱
##谲
##谴
##谶
##谷
##豁
##豆
##豇
##豈
##豉
##豊
##豌
##豎
##豐
##豔
##豚
##象
##豢
##豪
##豫
##豬
##豹
##豺
##貂
##貅
##貌
##貓
##貔
##貘
##貝
##貞
##負
##財
##貢
##貧
##貨
##販
##貪
##貫
##責
##貯
##貰
##貳
##貴
##貶
##買
##貸
##費
##貼
##貽
##貿
##賀
##賁
##賂
##賃
##賄
##資
##賈
##賊
##賑
##賓
##賜
##賞
##賠
##賡
##賢
##賣
##賤
##賦
##質
##賬
##賭
##賴
##賺
##購
##賽
##贅
##贈
##贊
##贍
##贏
##贓
##贖
##贛
##贝
##贞
##负
##贡
##财
##责
##贤
##败
##账
##货
##质
##贩
##贪
##贫
##贬
##购
##贮
##贯
##贰
##贱
##贲
##贴
##贵
##贷
##贸
##费
##贺
##贻
##贼
##贾
##贿
##赁
##赂
##赃
##资
##赅
##赈
##赊
##赋
##赌
##赎
##赏
##赐
##赓
##赔
##赖
##赘
##赚
##赛
##赝
##赞
##赠
##赡
##赢
##赣
##赤
##赦
##赧
##赫
##赭
##走
##赳
##赴
##赵
##赶
##起
##趁
##超
##越
##趋
##趕
##趙
##趟
##趣
##趨
##足
##趴
##趵
##趸
##趺
##趾
##跃
##跄
##跆
##跋
##跌
##跎
##跑
##跖
##跚
##跛
##距
##跟
##跡
##跤
##跨
##跩
##跪
##路
##跳
##践
##跷
##跹
##跺
##跻
##踉
##踊
##踌
##踏
##踐
##踝
##踞
##踟
##踢
##踩
##踪
##踮
##踱
##踴
##踵
##踹
##蹂
##蹄
##蹇
##蹈
##蹉
##蹊
##蹋
##蹑
##蹒
##蹙
##蹟
##蹣
##蹤
##蹦
##蹩
##蹬
##蹭
##蹲
##蹴
##蹶
##蹺
##蹼
##蹿
##躁
##躇
##躉
##躊
##躋
##躍
##躏
##躪
##身
##躬
##躯
##躲
##躺
##軀
##車
##軋
##軌
##軍
##軒
##軟
##転
##軸
##軼
##軽
##軾
##較
##載
##輒
##輓
##輔
##輕
##輛
##輝
##輟
##輩
##輪
##輯
##輸
##輻
##輾
##輿
##轄
##轅
##轆
##轉
##轍
##轎
##轟
##车
##轧
##轨
##轩
##转
##轭
##轮
##软
##轰
##轲
##轴
##轶
##轻
##轼
##载
##轿
##较
##辄
##辅
##辆
##辇
##辈
##辉
##辊
##辍
##辐
##辑
##输
##辕
##辖
##辗
##辘
##辙
##辛
##辜
##辞
##辟
##辣
##辦
##辨
##辩
##辫
##辭
##辮
##辯
##辰
##辱
##農
##边
##辺
##辻
##込
##辽
##达
##迁
##迂
##迄
##迅
##过
##迈
##迎
##运
##近
##返
##还
##这
##进
##远
##违
##连
##迟
##迢
##迤
##迥
##迦
##迩
##迪
##迫
##迭
##述
##迴
##迷
##迸
##迹
##迺
##追
##退
##送
##适
##逃
##逅
##逆
##选
##逊
##逍
##透
##逐
##递
##途
##逕
##逗
##這
##通
##逛
##逝
##逞
##速
##造
##逢
##連
##逮
##週
##進
##逵
##逶
##逸
##逻
##逼
##逾
##遁
##遂
##遅
##遇
##遊
##運
##遍
##過
##遏
##遐
##遑
##遒
##道
##達
##違
##遗
##遙
##遛
##遜
##遞
##遠
##遢
##遣
##遥
##遨
##適
##遭
##遮
##遲
##遴
##遵
##遶
##遷
##選
##遺
##遼
##遽
##避
##邀
##邁
##邂
##邃
##還
##邇
##邈
##邊
##邋
##邏
##邑
##邓
##邕
##邛
##邝
##邢
##那
##邦
##邨
##邪
##邬
##邮
##邯
##邰
##邱
##邳
##邵
##邸
##邹
##邺
##邻
##郁
##郅
##郊
##郎
##郑
##郜
##郝
##郡
##郢
##郤
##郦
##郧
##部
##郫
##郭
##郴
##郵
##郷
##郸
##都
##鄂
##鄉
##鄒
##鄔
##鄙
##鄞
##鄢
##鄧
##鄭
##鄰
##鄱
##鄲
##鄺
##酉
##酊
##酋
##酌
##配
##酐
##酒
##酗
##酚
##酝
##酢
##酣
##酥
##酩
##酪
##酬
##酮
##酯
##酰
##酱
##酵
##酶
##酷
##酸
##酿
##醃
##醇
##醉
##醋
##醍
##醐
##醒
##醚
##醛
##醜
##醞
##醣
##醪
##醫
##醬
##醮
##醯
##醴
##醺
##釀
##釁
##采
##釉
##释
##釋
##里
##重
##野
##量
##釐
##金
##釗
##釘
##釜
##針
##釣
##釦
##釧
##釵
##鈀
##鈉
##鈍
##鈎
##鈔
##鈕
##鈞
##鈣
##鈦
##鈪
##鈴
##鈺
##鈾
##鉀
##鉄
##鉅
##鉉
##鉑
##鉗
##鉚
##鉛
##鉤
##鉴
##鉻
##銀
##銃
##銅
##銑
##銓
##銖
##銘
##銜
##銬
##銭
##銮
##銳
##銷
##銹
##鋁
##鋅
##鋒
##鋤
##鋪
##鋰
##鋸
##鋼
##錄
##錐
##錘
##錚
##錠
##錢
##錦
##錨
##錫
##錮
##錯
##録
##錳
##錶
##鍊
##鍋
##鍍
##鍛
##鍥
##鍰
##鍵
##鍺
##鍾
##鎂
##鎊
##鎌
##鎏
##鎔
##鎖
##鎗
##鎚
##鎧
##鎬
##鎮
##鎳
##鏈
##鏖
##鏗
##鏘
##鏞
##鏟
##鏡
##鏢
##鏤
##鏽
##鐘
##鐮
##鐲
##鐳
##鐵
##鐸
##鐺
##鑄
##鑊
##鑑
##鑒
##鑣
##鑫
##鑰
##鑲
##鑼
##鑽
##鑾
##鑿
##针
##钉
##钊
##钎
##钏
##钒
##钓
##钗
##钙
##钛
##钜
##钝
##钞
##钟
##钠
##钡
##钢
##钣
##钤
##钥
##钦
##钧
##钨
##钩
##钮
##钯
##钰
##钱
##钳
##钴
##钵
##钺
##钻
##钼
##钾
##钿
##铀
##铁
##铂
##铃
##铄
##铅
##铆
##铉
##铎
##铐
##铛
##铜
##铝
##铠
##铡
##铢
##铣
##铤
##铨
##铩
##铬
##铭
##铮
##铰
##铲
##铵
##银
##铸
##铺
##链
##铿
##销
##锁
##锂
##锄
##锅
##锆
##锈
##锉
##锋
##锌
##锏
##锐
##锑
##错
##锚
##锟
##锡
##锢
##锣
##锤
##锥
##锦
##锭
##键
##锯
##锰
##锲
##锵
##锹
##锺
##锻
##镀
##镁
##镂
##镇
##镉
##镌
##镍
##镐
##镑
##镕
##镖
##镗
##镛
##镜
##镣
##镭
##镯
##镰
##镳
##镶
##長
##长
##門
##閃
##閉
##開
##閎
##閏
##閑
##閒
##間
##閔
##閘
##閡
##関
##閣
##閥
##閨
##閩
##閱
##閲
##閹
##閻
##閾
##闆
##闇
##闊
##闌
##闍
##闔
##闕
##闖
##闘
##關
##闡
##闢
##门
##闪
##闫
##闭
##问
##闯
##闰
##闲
##间
##闵
##闷
##闸
##闹
##闺
##闻
##闽
##闾
##阀
##阁
##阂
##阅
##阆
##阇
##阈
##阉
##阎
##阐
##阑
##阔
##阕
##阖
##阙
##阚
##阜
##队
##阡
##阪
##阮
##阱
##防
##阳
##阴
##阵
##阶
##阻
##阿
##陀
##陂
##附
##际
##陆
##陇
##陈
##陋
##陌
##降
##限
##陕
##陛
##陝
##陞
##陟
##陡
##院
##陣
##除
##陨
##险
##陪
##陰
##陲
##陳
##陵
##陶
##陷
##陸
##険
##陽
##隅
##隆
##隈
##隊
##隋
##隍
##階
##随
##隐
##隔
##隕
##隘
##隙
##際
##障
##隠
##隣
##隧
##隨
##險
##隱
##隴
##隶
##隸
##隻
##隼
##隽
##难
##雀
##雁
##雄
##雅
##集
##雇
##雉
##雋
##雌
##雍
##雎
##雏
##雑
##雒
##雕
##雖
##雙
##雛
##雜
##雞
##離
##難
##雨
##雪
##雯
##雰
##雲
##雳
##零
##雷
##雹
##電
##雾
##需
##霁
##霄
##霆
##震
##霈
##霉
##霊
##霍
##霎
##霏
##霑
##霓
##霖
##霜
##霞
##霧
##霭
##霰
##露
##霸
##霹
##霽
##霾
##靂
##靄
##靈
##青
##靓
##靖
##静
##靚
##靛
##靜
##非
##靠
##靡
##面
##靥
##靦
##革
##靳
##靴
##靶
##靼
##鞅
##鞋
##鞍
##鞏
##鞑
##鞘
##鞠
##鞣
##鞦
##鞭
##韆
##韋
##韌
##韓
##韜
##韦
##韧
##韩
##韬
##韭
##音
##韵
##韶
##韻
##響
##頁
##頂
##頃
##項
##順
##須
##頌
##預
##頑
##頒
##頓
##頗
##領
##頜
##頡
##頤
##頫
##頭
##頰
##頷
##頸
##頹
##頻
##頼
##顆
##題
##額
##顎
##顏
##顔
##願
##顛
##類
##顧
##顫
##顯
##顱
##顴
##页
##顶
##顷
##项
##顺
##须
##顼
##顽
##顾
##顿
##颁
##颂
##预
##颅
##领
##颇
##颈
##颉
##颊
##颌
##颍
##颐
##频
##颓
##颔
##颖
##颗
##题
##颚
##颛
##颜
##额
##颞
##颠
##颡
##颢
##颤
##颦
##颧
##風
##颯
##颱
##颳
##颶
##颼
##飄
##飆
##风
##飒
##飓
##飕
##飘
##飙
##飚
##飛
##飞
##食
##飢
##飨
##飩
##飪
##飯
##飲
##飼
##飽
##飾
##餃
##餅
##餉
##養
##餌
##餐
##餒
##餓
##餘
##餚
##餛
##餞
##餡
##館
##餮
##餵
##餾
##饅
##饈
##饋
##饌
##饍
##饑
##饒
##饕
##饗
##饞
##饥
##饨
##饪
##饬
##饭
##饮
##饯
##饰
##饱
##饲
##饴
##饵
##饶
##饷
##饺
##饼
##饽
##饿
##馀
##馁
##馄
##馅
##馆
##馈
##馋
##馍
##馏
##馒
##馔
##首
##馗
##香
##馥
##馨
##馬
##馭
##馮
##馳
##馴
##駁
##駄
##駅
##駆
##駐
##駒
##駕
##駛
##駝
##駭
##駱
##駿
##騁
##騎
##騏
##験
##騙
##騨
##騰
##騷
##驀
##驅
##驊
##驍
##驒
##驕
##驗
##驚
##驛
##驟
##驢
##驥
##马
##驭
##驮
##驯
##驰
##驱
##驳
##驴
##驶
##驷
##驸
##驹
##驻
##驼
##驾
##驿
##骁
##骂
##骄
##骅
##骆
##骇
##骈
##骊
##骋
##验
##骏
##骐
##骑
##骗
##骚
##骛
##骜
##骞
##骠
##骡
##骤
##骥
##骧
##骨
##骯
##骰
##骶
##骷
##骸
##骼
##髂
##髅
##髋
##髏
##髒
##髓
##體
##髖
##高
##髦
##髪
##髮
##髯
##髻
##鬃
##鬆
##鬍
##鬓
##鬚
##鬟
##鬢
##鬣
##鬥
##鬧
##鬱
##鬼
##魁
##魂
##魄
##魅
##魇
##魍
##魏
##魔
##魘
##魚
##魯
##魷
##鮑
##鮨
##鮪
##鮭
##鮮
##鯉
##鯊
##鯖
##鯛
##鯨
##鯰
##鯽
##鰍
##鰓
##鰭
##鰲
##鰻
##鰾
##鱈
##鱉
##鱔
##鱗
##鱷
##鱸
##鱼
##鱿
##鲁
##鲈
##鲍
##鲑
##鲛
##鲜
##鲟
##鲢
##鲤
##鲨
##鲫
##鲱
##鲲
##鲶
##鲷
##鲸
##鳃
##鳄
##鳅
##鳌
##鳍
##鳕
##鳖
##鳗
##鳝
##鳞
##鳥
##鳩
##鳳
##鳴
##鳶
##鴉
##鴕
##鴛
##鴦
##鴨
##鴻
##鴿
##鵑
##鵜
##鵝
##鵡
##鵬
##鵰
##鵲
##鶘
##鶩
##鶯
##鶴
##鷗
##鷲
##鷹
##鷺
##鸚
##鸞
##鸟
##鸠
##鸡
##鸢
##鸣
##鸥
##鸦
##鸨
##鸪
##鸭
##鸯
##鸳
##鸵
##鸽
##鸾
##鸿
##鹂
##鹃
##鹄
##鹅
##鹈
##鹉
##鹊
##鹌
##鹏
##鹑
##鹕
##鹘
##鹜
##鹞
##鹤
##鹦
##鹧
##鹫
##鹭
##鹰
##鹳
##鹵
##鹹
##鹼
##鹽
##鹿
##麂
##麋
##麒
##麓
##麗
##麝
##麟
##麥
##麦
##麩
##麴
##麵
##麸
##麺
##麻
##麼
##麽
##麾
##黃
##黄
##黍
##黎
##黏
##黑
##黒
##黔
##默
##黛
##黜
##黝
##點
##黠
##黨
##黯
##黴
##鼋
##鼎
##鼐
##鼓
##鼠
##鼬
##鼹
##鼻
##鼾
##齁
##齊
##齋
##齐
##齒
##齡
##齢
##齣
##齦
##齿
##龄
##龅
##龈
##龊
##龋
##龌
##龍
##龐
##龔
##龕
##龙
##龚
##龛
##龜
##龟
##︰
##︱
##︶
##︿
##﹁
##﹂
##﹍
##﹏
##﹐
##﹑
##﹒
##﹔
##﹕
##﹖
##﹗
##﹙
##﹚
##﹝
##﹞
##﹡
##﹣
##！
##＂
##＃
##＄
##％
##＆
##＇
##（
##）
##＊
##，
##－
##．
##／
##：
##；
##＜
##？
##＠
##［
##＼
##］
##＾
##＿
##｀
##ｆ
##ｈ
##ｊ
##ｕ
##ｗ
##ｚ
##｛
##｝
##｡
##｢
##｣
##､
##･
##ｯ
##ｰ
##ｲ
##ｸ
##ｼ
##ｽ
##ﾄ
##ﾉ
##ﾌ
##ﾗ
##ﾙ
##ﾝ
##ﾞ
##ﾟ
##￣
##￥
##👍
##🔥
##😂
##😎
—
肫
絀
飭
剴
帙
駢
牘
“
”
顰
擯
鴆
躐
嫺
蕆
騖
悛
…
僞
頦
欹
洫
戽
璩
噘
縐
妁
螣
逡
迍
讒
‘
’
恂
讎
覲
泆
邐
鈐
逋
慝
穡
曷
餿
昃
禳
眚
桴
篾
舡
皁
癆
罟
鯢
諍
駟
槨
螟
蛉
瘥
軫
竈
閭
`
鰥
薺
邅
撝
獞
躔
檁
橈
爓
甖
　
瓇
彊
呪
鐫
轡
紆
衽
幛
璡
罍
艤
臞
彘
崢
嶸
觴
謫
鳧
檣
綰
槧
鋏
鴞
蓴
鸝
囀
鞮
牖
齲
∈
擻
鎩
⒆
閶
揎
璈
酴
醿
鈿
紈
鞚
縹
緲
轤
僉
嫋
筅
玕
鉢
纛
輦
狨
韉
驄
鷓
鴣
櫳
忔
歟
羆
鉞
敻
縂
呉
冡
冦
葢
疎
槖
昬
暋
胙
剟
枵
逺

洊
禆
鶻
轖
瘕
寤
諼
凖
叅
徤
隂
闗
鈇
胏
聼
菑
畬
嵗
剭

烜
塲
贄
邴
餗
誚
闤
闠
遯
寜
洎
賚
苐
靣

觭
眡
祲
秖
搃
縢
扆
阼
尠
劓
刖
摽
迨
邠
窋
綯
冩
邜
詎
徂
萇
驂
觼
勲
祓
禊
鞔

閟
籩
廹
喤
厯
筭
刋
羮
誄
蒍
邘
蘓
韙
讐
竒


糓
濵

餽
噫
雩
鄫
塟
笄



閫
槩
懐
戱
匜
艴
竦
歜
徧

葅
詈
壻
鄋

躡
夀
宻
徔

殪
夑
轂
姞
厠
騐
牿
縦
蘧
縊
兾
恝
諛
狥
貺
晳
阨
逰
趯
旞
鯀
鼈
侀
饜
賔
鱄
愽

偹
祏

匰
逓
裼
櫜

倨
踧
踖
紇
荅
譌
黙
禫
亓
蒯
聵
簒
愎
乆
頴
爨
簀
簴
殀
髺
緦
縚

縓
纁
赬
僣
臯
栁
繐
絰
緌
謡
祫
紼
仂
盍
茍
蟈
蘜
鼃
黽
屨
柎
闉
壙
豸
搢
獮
顙
涖
逈
耜
畯
畷
隄
澔
襢
黼
鷩
褘
袷
朂
棖
闑
堦
祔
旄
刄
隮
歠
鬯
渳
紟
殛
崈
殂
甒
覸
瞽
瞍
諉
秪
筮
譔
悝
烝
鉏
涘
謟
讙
揜
鎰
鼙
鏜
醢
陔
亷
黻
廩
餼
箙
攷
覿
廵
賙
囏
矧
豕
掊

倅
汚
覩
畆
籥
詁
塋
踦
逹
訾
讖
觧
貍
曽

檮
杌
齎
摶
鼔
騋
驪
褭
恊
鞼
讁
欘
臏
凢
劌
榎
槄
檟
踈
骹
湼
簠
簋
圎
觳
詒
紲
儐
賛
餕


媵
觶
蹵
縞
緇
鬴
墼
堊
禰
滛
笱

飬
湏
圗
褖
蚍
蜉
鬲
爼
尢
袝
徃
紒
髠
髢
巹
佾
禘

脗
糈
坫
庋
篚
瑑
緅

澁
輙
狃
聫
慍
刉
豭
刲
畧
慿

絜
濶

泃
髙
翬
粢
殽
嶔
囬
邉
牀
刼
圉
檉
斮

剡
濆
欵
怍
讜
邾
寳
瞶
軰
紏
郕
熈
挐
殱
稾
眇
僂
鞌
閽
澶
鄆
戩
虺
隤
晜
觱
贇
擐
晡
撣
謳
顥
垌
糴
貲
褰
霤
僎
祧
朓
珽
礻
俛
偫
浹
鏃
撾
瘞
蕞
檛
蠲
曩
湎
麯
鹻
玘
敓
攵
闈
擿
譾
嗢
顗
闐
鑞
匭
沆
洺
瓚
菰
兗
璠
蹕
磑
屩
梃
堠
殄
瘳
戢
譖
鞫
寘
輅
禋
璘
儻
潩
鬻
箠
饉
酹
掾
騶
帟
奩
篋
冑
髭
磔
秬
幘
跣
曀
偓
釃
湜
驤
杻
謦
欬
忝
窬
笥
剗
隰
踣
踶
漼
鋹
玭
倣
廡
畋
髀
鴟
縉
襦
籙
紿
縕
虓
絙
螭
俶
殫
潁
芰
櫝
廨
扃
鐍
醵
槥
儈
諤
讟
藁
舁
扞
廄
牣
徭
旰
笫
偁
袴
旆
玆
鯁
嫗
櫱
伷
衎
懌
沔
鸛
嶮
巇
糶
縲
鄄
獯
鄣
諂
鼷
佖
杲
藪
輜
沴
穰
訐
繒
奭
殍
賕
匄
黥
鄴
剸
勍
餱
覘
鄜
噍
馘
捽
隳
槊
譟
緡
兕
汊
犴
疋
觖
煬
甽
彀
濩
潯
悒
嶠
謇
昺
岢
黷
捃
旴
抃
鏊
詿
縋
騃
惻
韃
蕢
愀
酤
鶉
眢
僶
煢
鐶
幬
慊
縻
魑
掄
鏹
絁
躓
憮
褊
誑
唃
蝻
塈
癘
衒
酺
圯
翕
闥
怫
韔
紕
輊
癭
狴
憸
暘
虸
蚄
瑊
媼
汭
歿
苴
詖
塹
鬷
暵
鷙
禕
詗
駸
賻
螽
縑
礬
鎛
莩
愴
逄
迕
蕘
鑢
璦
齠
齔
撙
軺
愨
牾
亶
泚
贐
宄
鑕
昷
淝
髫
灃
淶
裒
掎
摭
僦
蓍
鬵
岠
嵎
埽
郯
劄
簣
劘
遡
瘼
驁
龠
纊
庣
揕
陘
獬
咈
膂
遘
蘺
嬖
踅
昪
詘
汧
汜
鑠
脞
敔
匏
駙
裀
鍼
頊
蘄
寔
噯
軻
詵
媕
遄
珦
錙
姤
覼
瘐
罣
綈
篳
篥
洚
捭
蹠
俵
噲
侁
雱
壠
賒
瓘
夅
壎
喑
卨
跬
駑
筌
櫪
愾
閼
芟
戇
醅
獫
狁
璪
琯
攽
弇
癉
堞
怛
轢
燾
浼
掞
畎
渰
螻
糲
硜
闒
顓
揞
螘
碭
憖
臚
皤
騭
屼
頵
悰
穜
襮
屣
甑
豗
飦
葑
茆
蕕
勔
翾
遹
闋
棐
燠
瑴
幃
儔
髡
棫
悃
鄯
甍
夬
濰
勣
忮
訃
貊
窾
勰
紱
郛
朏
鍔
刓
圮
珫
薿
俁
滎
懟
悈
漴
愬
譓
壝
諟
鏻
鬨
飫
鯈
翛
絛
蕡
脽
鉟
孥
侔
臠
笓
蓐
迓
梲
曚
胑
濋
鶠
滹
硃
竧
脰
獪
倞
櫓
詝
刳
鋌
騾
澥
幵
韐
憒
柙
祼
衊
僝
璹
珸
焞
陬
敉
穠
刦
拊
湔
珵
諲
鬮
躕
鞗
饘
逖
霪
誾
茇
轓
玀
恧
旉
忞
毳
羶
圊
畚
鍤
憝
厖
肸
懣
耰
碕
倀
梠
邡
梔
鱣
綆
箬
煇
舳
艫
兟
桷
偲
銍
酈
錡
邽
齧
鶺
鴒
鵪
夤
洧
唶
鏑
閬
縶
熁
謖
哷
歃
筈
藺
懬
嶷
禖
瘵
澇
濞
戣
瑦
旼
脧
癯
炤
滉
駔
噉
搴
伋
俅
坰
э
闞
嬙
曈
縡
礿
沄
弅
鵓
戄
矼
悆
鱘
鮓
樗
齏
幗
黮
跂
泅
窶
褾
閌
攄
疃
郗
爇
鞓
璵
軔
筇
猊
寀
諶
偯
嵲
癃
垓
漻
雘
溷
惏
愐
輇
簞
齪
淔
紃
骫
骳
慥
譊
絺
綌
晸
郾
呿
泇
盩
淠
馱
鞉
琚
鐙
熺
鶚
黶
靸
鞻
猢
縟
俌
楶
猺
籀
麈
俜
鎡
曮
楙
璣
嫄
璆
詧
鵩
飈
鷽
慓
狻
鍪
窵
嗾
倓
焴
浤
齷
欞
嚞
惙
儇
瀹
穟
禩
焆
蜑
嚳
郟
痾
偰
鑻
榘
詪
磽
窳
洳
摐
埒
趲
鉦
崤
傒
埭
纈
粃
媟
竑
昝
徯
壖
陴
訸
眘
愭
騤
眥
睚
栻
茀
怓
櫬
斁
逨
蜮
巘
顒
柅
彖
橛
愒
垕
鋈
厪
晹
牂
翥
鹺
磻
蘩
邲
佺
輵
碶
甃
蓰
拃
稂
伾
嶧
醲
艧
劬
抆
釂
啗
繰
蠋
舄
秕
忸
闃
飴
繄
瀦
濼
棨
浰
槱
縗
輴
瀷
跅
讋
蠖
岊
挻
抦
襴
羑
纘
侂
旒
阽
沇
鎾
璺
坼
疐
鞴
澉
蚋
墌
愊
攖
蹐
庀
爚
諴
剄
鄖
磧
熛
塒
坻
嵒
僇
軨
珌
毖
澟
饔
昸
惓
晐
懫
薾
郿
懥
汔
霅
韡
僨
蓀
洌
璙
隗
杪
黧
廙
胔
潠
綝
煚
酃
鏵
澭
豳
衂
逭
蜩
砦
殣
嚅
嚌
婣
蜎
耇
墍
鋂
枹
埴
璫
殮
鮒
坌
舭
繈
竚
蠁
襅
縤
珘
藎
禥
瑫
騑
炣
滃
霂
漵
鄮
塏
闓
膴
嵤
鍨
芘
蔇
璮
訔
芑
鼉
觚
犖
癰
蠊
蕷
疰
蘞
艽
瓠
荑
溲
菥
茺
蒺
蓯
螫
葙
栝
蔞
螈
嗌
菔
螵
蛸
鼽
癩
蟯
芨
腠
萆
菝
噦
蘅
瘰
蠆
葒
荇
柰
秫
癤
蝥
蠐
螬
蛞
蝓
莨
菪
鱺
榧
薤
薷
茈
葶
藶
眵
躑
躅
麇
銚
薴
漚
蒴
鯪
蚺
蝮
蛄
蟪
蜣
鸕
鼴
鮫
鰒
蕺
勑
藳
旛
椷
庥
酆
氳
飡
騫
颺
欎
蘂
蹌
踳
亹
揲
蔟
鷃
裛
咥
絪
鞶
缶
颸
呶
楯
蓊
螿
瘖
齶
傖
酲
薆
桕
艭
漶
窀
穸
硎
賅
壒
棼
讏
窅
罥
唵
巉
罅
瓔
穉
磴
鬘
栴
椀
燹
爟
拶
荢
鯫
萏
蕖
瀲
灩
輳
黌
捫
妗
贗
嫠
氅
傈
誆
鴇
懨
嬋
繾
綣
蠓
嫜
嘵
艄
嬈
皛
繮
裎
嬡
廑
廒
孌
瀠
曛
忭
鐐
溽
帔
糹
笪
閂
檑
懍
裰
枘
褙
眄
岣
屺
棬
襤
褸
諢
呔
刂
錁
柝
襖
鷦
鷯
鐃
啐
綃
廛
鍘
櫟
丌
羙
鳯


隩
氄

厎
毨
耎
趂
朞
剰

嚚
驩
兠
貎
抝

嬀
賾
暦
廻
窽
昻
鬭
禜
鋭
叚

畨
剕
寃

殳
斨
攦
銎


纎
皦
堲

緫
廸
頽
澮
鑚
紝
釡
襃
聨
渇
柁
豵
厓
鬬
勅

彞
繢
蜼

瞀
樏
梮
濔
挶

黹
紩
旂
鵠


奡
鞀
柷
鋙
籈
箾


箎
臝
覈

冣
砱
騂


蠙
檿
陜
丄
鐡
泲
灉
汳
畛
枲
鈆
餙
蠒
漷
埏
舋
嶓

簜
笴
楩
簳
邗
蜯
杶
榦
砮
箘
楛
麄
簵
菹
夐

瀍

澠
溠
壚
紵
灊
佷
罽
岍
鄠
鷔

渃
嶲
瓉
齟
齬
澨
舘
贑
泝
冐
凟
庻

姺
苖
勦
菆
隷
抶
怩
肈
皥

慙
熖
莭
甞
聦
纉
眀
誔
彛
勠
慆
摰
諌
覡
顕
恱
懽
萹
嘇
鋩
犠
慼
緜
甹
枿

斆


聱
轘

頋

僴
傋
肜
雊
畤
譛
卹
魋

耉
牷


袚
狷
夘
椘
痡


髳
陻
祻
鍜
尅
扵
爕
扐

簏
髣
髴
瞫

墠

胷
冝
簮
扺
卭
卬
疢

宼
莾
膰
偪

鄘
杕

瘝
皷
聸
辠
刵
梱
戞
沬
蠧
酖
衋
劼

疻
斵
虗
龎
擕
碞
伻
鄏
蘉
肹
卣
稃
閠
旣
曁
昳
譸
蔕

獃
碔
砆
琑
輶
盻

愼
廋
欝
勱
晻

耔
苾
頮

烱
牎
牕
鼖
兊
鎭

戺
鈗
嘏
鬛
襚
鴈
寖
侉
沍
暬
椓

焄
眊
賵
聃
諠
敿
擭
敜
穽
濳
仡
諞
莬
媢
隉
袠
犂
皡
鳲
鴶
鵴
緱
韎
邍
貉
齍
簭



羃
罝
罘
餧
虣
鄼
卝
饎
蓏
菙
鷖
旟
旐
冘
撢
宂
翨
硩
犮
畮
槷
戹
軿
瓫
搦
鯤
扌
覯
唼
蟣
襆
鯗
鏐
鷂
窹
唣
笊
忄
噥
訁
咍
剙
弨
宐
歭
朙
亾
忉
痏
拏
蹡
蚧
蓽
渫
穣
緙
泔
銼
餳
飧
跗
靨
釅
榐
罨
傴
糝
肭
糉
胾
嚃
嘬
洟
庳
儳
湢
楎
椸
饁
橚
芼
彚
嫰
煠
胊

莵
薢

葴
蘥
窊
梂
笮
姙
攛
芣
苢
蘢
蘬

幷
蕧
蕳
蓷
鍮
苨
撱
蘹
抪
栲
栳
葝
黲
茳
衘
葎
軹
菉
槮
椏
狶
薟
鍁
稭
竪

兎
蓇
葖
搨
薥
萮
褗
蒳
鈹

虼
蚾
攅

飜
栢
稈
毬

痩
葓

箒
耬
莙
薘
蔾
醎
觜
殻
蔏

蓫
薚
穬
蘘
朶
劒
葍
鷰
纒
碡
墐
圝
鮹
菼

犲
檾
苘
搯
劐
杔
葈
葹
堈
芐
飥
蕚
捄
葽
捜
鷥
薜

荈
櫨
蓎
藙
輞
樝
柤
穁
芿
珎
駞


煑
椵


樲
棰
鬾
蒾
棃
檵
蘃
欛
櫰
麧
骲
茡
椑
楪
醂
蘡
薁
虆
藲
梬

櫅
葧

蕸
蔤
蕒
虀
蓂
覔
藷
陊
埇
礩
磉
磩
栱
欂
槉
閞
枅
枓
栭
墱
欐
杗
廇
枺
樘
槫
櫋
樀
庌
槾
橝
庮
楬
柃
梐
枑
籓
甋
甓
櫼
斲
垘
贔
屓
睒
擗
簟
襻
宧
窔
堭
栔
崚
鏮
虯
枒
偞
瀀
薂
餥
跧
琁
杇
鏝
塓
麤
砟
礱
鈒
嘓
誁
黀
殏
胘
檖
哫
俋
奨
櫍
簝
榥
桯
楅
撏
騸




騍
搠
鷀


誶
狍




泐
罈
ㄝ
圪

垤



鍬

衤
┑

鋇

皪
錛


翽

檘
緪
橦
綩
綖
灒

褠
跼
佽
郄
悞
伹
觔
朿
漊
儓
篦
譫
妯
娌
仵
訉
顖
棓
鬪
皞
迯
篐
瞷
韞
覥
訑
摉
迀
朘
玗
鸇
魎
鴃
繯
凂
懃
揠
仭
巋
跽
囮
媱
塜
縳
鉸
掯
躧
餬
撘
痌
鉈
踰
灕
勷
筴
罶
狺
巛
塍
堘
牜
胼
繸
躭
怗
暪
倈
刧
紬
蹷
瘏
佌
韲
囷
訒
魃
彽
噀
囁
猱
慂
獍
袓
蜾
鐄
弤
紾
鋥
妬
冓
裭
閧
彡
嫫
礶
恡
鈸
槔
溘
澌
閆
萑
羕
繦
傕
磾
黟
庱
驃
酇
玈
谿
郃
魴
瑇
衜
喁
阯
諝
珝
鞬
笳
廞
誧
泭
喈
阬
摴
蒱
倮
髲
埆
瀁
洿
慺
擽
栟
矴
毦
憍
歔
欷
飱
躄
躒
悁
跱
闟
慽
厺
忩
襜
湞
嫿
伀
厷
逴
猨
狖
莜
喭
雦
憯
犇
裋
罫
氂
璅
祅
酎
璝
莋
猇
巂
迮
犛
悢
儗
瑒
憙
翮
鞞
旍
郪
庲
牁
趑
趄
啁
毣
曶
攇
鬩
鐔
駰
頣
衺
蠭
欻
籜
阝
誖
觕
賨
觽
暠
鷪
髃
夡
韂
鉨
眭
蠃
淯
豨
頉
髑
儙
爎
滏
扨
泒
晊
廮
箄
虡
銟
暞
澙
蜔
帢
閴
濊
鄶
儣
豷
駘
鴋
萐
嗠
袗
玦
栒
箉
簄
翫
惛
曪
紞
瀸
鍠
咷
嶢
蓺
鄛
罳
寭
藊
茌
騵
邔
鄀
洨
噃
鉼
靮
毝
緓
浞
熅
鞕
逌
醊
嚺
侐
箰
硤
渟
熲
暛
鴺
牓
貋
攴
恇
頎
餔
篃
邟
慐
悺
僄
耱
鞖
旝
叞
扤
朇
縠
箢
繥
喢
蛑
毌
纚
槗
驋
羝
蝤
燋
隃
氵
蹹
惪
倢
伃
緄
惲
甝
霬
蓨
尪
鸑
鷟
臶
鵀
鄚
熯
縵
謥
娀
攰
讕
堨
郇
郖
牸
詷
狟
慠
瓙
飠
鼲
搤
吀
玹
侻
帊
筦
銛
誒
旹
莛
鄃
蔀
珷
玞
蹏
渢
辿
頏
觫
苲
鞜
騊
釒
柟
橿
浡
倕
犭
鷄
魌
吺
嚙
蚘
涴
毈
斉
蜺
獏
烞
麞
磎
踠
挼
蛩
舴
殢
繤
醾
樆
鰣
盫
浥
荺
藂
襞
晼
嘕
荂
睎

蹁
蹮
姘
鶱
轣
彔
奼
韀
湲
蔌
礨
磈

醆
娭
藟
爝
踫
訏
檃
絅
槅
孅
攟
崐
鍭
艎
艌
鋦
絍
梚
筀
圬
帡
幪
閈
厫
瓛
鋐
讃
穵
幙
斝
唫
讌
枻
跲
籝
媮
骩
珤
堧
笵
焫
臿
缾
薌
眎
筳
艖
郞
尙
卽
厰
貟
搆
卲
酡
醨
蚶
隥
羼
眴
呰
渧
睺
玔
佉
鉾
婇
莂
玼
讇
咃
揵
挍
懅
幉
歘
瞢
坁
駃
樔
悕
卄
輨
鑷
紖
攡
捔
嘙
睼
仚
唎
閦
汦
侜
啅
羖
儜
咜
颰
癕
滼
哹
葂
頞
跉
跰
秏
恌
枙
膇
麨
鍱
驎
仳
剆
坒
嚧
呾
馺
栘
攲
儸
吲
蒒
挃
敧
檊
慞
糏
臛
牚
暍
塳
髟
鞙
絓
恀
瞂
簁
掁
箜
篌
鼨
櫎
婫
杅
仛
抧
朚
儚
黚
怤
喿
湅
懆
涑
嗥
癊
廌
諵
嚂
垔
錈
絝
醑
瀣
惝
騮
黿
敫
癔
髹
踽
軛
銦
熳
繅
砑
酞
淥
幞
鍇
躚
瀵
釩
邙
轔
篼
蚨
氍
毹
螓
癟
嬲
崦
鵂
楱
祆
蟇
釿
怳
噏
澋
蓡
薫
頥
鞾
罸
阞


鼵
鵽
懖
炪

寗
羺
尨
攊
扙
蕅
粊
澫
搉
僩
媸
儌
虌
綮
凊
輗
軏
鄹
鮀
囋
葸
悾
壍
躩
蹜
麑
饐
餲
儺
晢
鞟
臮
蓧
騧
燐
闚
婬
鑪
眹
霔
賫
儵
嵉
蕂
蝖
燌
玃
惒
窆
泖
疒
硌
厶
膃
閿
皸
猻
檠
蜞
蠑
蕓
驌
┝
︹
逑
酏
冫
岵
ゾ
亻
楗
ヅ
﹃
ⅷ
ⅵ
ⅶ
粺
糳
絫
諈
隲
詶
澘
澒
褵
毿
覊
鴝
垞
鈖
髥
彳
亍
甪
稊
蛺
訢
偍
嚲
瀼
巑
岏
瀜
洤
靧
烐
爣
牅
嵸
崒
倐
屧
擫
鏌
嵁
趼
澷
剞
劂
裯
颿
ㄙ
ㄠ
棪
伭
〦
爿
誐
禸
軮
澓
蝄
蜽
阸
犎
犦
胅
蹯
虍
蚖
蛣
橃
霣
廾
漦
懱
薎
瞚
眒
冖
愔
呬
慜
臤
劦
刕
鋷
銸
尞
匽
斸
鑺
鴚
蝘
蚚
蠮
螉
蟃
蟊
貣
蛗
枼
馲
皵
夋
猒
弰
戉
燖
燂
稯
矰
譥
尒
嘁
陁
窣
墫
宀
憘
斿
寙
貇
屮
馚
嚩
畟
遦
辵
鐆
茻
墋
磣
歰
猋
殹
凵
鈌
跏
愓
嫶
瞙
犾
乑
畾
廧
嬻
鞇
夌
豦
筣
〡
膍
暟
堐
檼
夗
隺
隹
髆
腨
棩
陼
痟
獶
苰
篅
圌
ㄓ
乚
悷
戔
崱
奓
韛
糒
夆
覛
垽
堄
腉
沚
咼
斠
涶
鴠
搒
氘
謉
聭
褱
勹
貁
袨
鎣
瘨
鈏
犗
錍
鎞
鈷
耴
貙
薶
粖
匚
霶
芔
咢
贆
蜬
粻
蠚
薀
涒
搎
蟭
ㄗ
嗞
瑱
騠
詃
靉
靆
棽
旡
罤
楴
朁
芇
灹
涷
堖
靺
蛖
莚
熢
騇
麚
麀
麛
鼁
潬
毄
圿
揔
譶
羭
翜
筟
瓨
捙
踡
殟
巤
殑
嘊
喍
啀
齜
墯
榩
昞
嗄
綟
彐
萠
壴
轑
叕
弜
鄡
憺
欃
絣
纆
煼
晧
虘
褌
杙
樴
睴
痃
蜟
鑁
谽
癶
┤
搊
簉
┐
幖
遻
鑱
嘼
呴
釰
俙
礓
纇
礔
礰
齹
桼
扂
扊
丳
戠
榑
惢
搩
钁
鳽
胻
圞
縒
蚑
嗍
槵
蝪
茖
毚
癧
螮
蝀
萉
鞨
酓
┘
摛
儦
┴
尌
冂
鵒
鸜
瘻
妉
捇
痆
欶
痁
圼
膬
笡
扡
鶤
芓
掔
馝
馞
飶
齸
柲
僈
焃
抳
椳
疀
鐅
獥
殠
抐
緎
睟
罒
綀
穊
瞤
趒
籰
漧
螾
螼
滽
眔
鋜
鎙
惌
濽
戁
涳
憷
茦
萫
樕
怚
欥
夊
剈
琓
鋃
橺
桾
欇
弶
亅
搘
狦
雚
鋡
巸
篣
筥
睘
皯
雔
渜
燸
濄
殨
癑
坭
笧
蕠
朅
蚔
辶
揬
儛
葥
閵
乇
匊
巠
薉
眤
鮐
脙
鞧
緧
搚
踆
黕
囈
褺
ㄊ
摑
貆
貈
嘒
蝷
堝
歍
桄
鶹
鵅
鵋
揥
裓
棆
疪
膎
鵮
呫
豖
捒
瓟
諀
縜
榍
皕
脮
靿
鍧
虒
瀳
惄
禨
昦
夰
旲
壈
戫
姡
鳸
鴳
嵫
醩
欱
矞
廱
簃
匋
栚
菧
鸋
鴂
寚
頀
麌
轇
賸
粈
贃
屙
唗
攆
鷸
齮
齕
蓚
鍈
厤
踔
滧
僿
龢
捖
棻
伈
俔
瘂
跢
薝
∴
噞
寍
詺
玡
踄
攧
廆
騄
鐧
騅
頠
艨
艟
鼕
娵
圇
鬏





盌




孶


槀
媿

頟

潕

暎
陑
朡


嚻
顚

糵
綉
鎻
邶
勗
睯

屛
庬
囘


斾
昡
慤
胂
髁
顳
墁
萡
琭
煳
盬
鄷
邥
鋮
倂
勊
蒭
巌
餤
噄
鄕
皼
瘇
侫
趫
竛
竮
峩
緃
艶
牃
牻
痬
澞
尫
擧
椙
幭
遰
嗛
杝
菫
蚳
鴽
萯
荓
蝭
鼶
訞
墬
橑
俓
蟜
泜
緺
籛
羋
輮
滫
鼫
灟
絖
軜
遧
遫
稘
鞁
愖
脤
禬
盷
蝣
嚾
裩
瘛
瘲
胗
黰
嵴
謅
痓
︺
芤
濈
漐
訇
蹻
胕
惵
臑
袛
灅
膕
斕
髎
晬
縿






槪
夲

朢

岧
噭
緗
鬐
韝
輈
湣
蕣
嵆
艑
歂
膋
歊
虵
巵
齚
廕
鶗
褎
畵
筯
瓌
沜
顦
顇
衼
扠
菴
崕
鬀
奯
凞
苧
袵
樨
塤
鼇
畊
煆
櫺

汸
鋟
趡
咺

彄
緰

禭
祊
酅
繻
聄
郲
寪
蚡
鄾

蔿
碏
樛
袲
慴
郱
鄑
郚
禚
郳

冺
澂

蒢
廏
廐

婼
惎

佹


鷁
眧
鍳

甗

頺

燬
芉
聮

獳
憗

廽



襧

綂
矔
劔
貜

獘
圁
鄟
邿
傎
櫕
曵

蝝

鄤
犨
餫
睔
嫳
諰
汋
茷
牼
朾
鄬
鄵
湨
訽

茢
摋

郠
鄅
鄸
踙

鄩
熸
蚠
郈

嚢
郥
檇

訌

啇
礞
遌
舲
塧
醰
抔
甿
鼚
葊
恉
牗
櫩
兀
畺
湓
砢
婓
蕝
嵕
餖
飣
弸
鵷
蘐
琤
茝
煟
鋆
煐
衖
溎
鰈
鶼
畡
舠
櫫
歈
矱
瓻
愙
漭
旙
丱
侘
傺
鵾
駓
帨
筩
曏
騕
慗
燡
庴
睠
傫
曧
枌
琠
犰
峸
璱
罿
鯂
岅
暕
嶁
槂
藭
葰
痗
齰
劻
駏
膢
蔦
鍀
繙
轗
箖
蟫
炘
嬃
碪
鄦
譆
炰
硉
顑
郙
棡
眮
沷
枬
繖
韾
哿
焭
仉
澬
豃
嚱
吷
斒
醥
鼯
駴
蝯
艣
歀
篨
韺
餂
澣
霨
剮
蟥
顋
斈
聀
慱
鑌
釆
斍
拠
淂
紸
呌
縍
褁
閗
鑵
臈
蕋
搥
氶
煿
帋
甆
樚
穇
竢
焠
蠏
窻
醡
煏
肕
鮎
豝
麁
獖
鱖
爊
爁
罯
蟶
蜛
脿
盦
碙
臕
怱
衠
膱
棊
蚫
餺
鈤
煻
撁
涬
藫
酙
圴
掿
羗
犱
鱅
蠪
鳬
鱬
鵁
蛪
獓
犪
獂
鶡
蛫
皐
馿
鸒
鵙
倿
雝
螄
鰕
蜋
謌
鶵
嗉
肶
飰
蔯
臰
檅
桵
蟢
櫽
嫓
瓿
竝
泂
欑
玤
欿
沕
犣
羇
襘
鏚
摦
頿
鄻
柣
屝
耊
鶂
絏
韅
靷
靽
滍
睅
郔
衵


鄗
軘
傁
掚
埳
迋
轏
窌
鄍
懻
軷
駹
﨣
匃

弢

榼
耏
雃
嘷
逷
嗸
橜
槆
俴
馹


穮
蓘
麕
汏
忕
癈


儁
綪
捘
捥

郹


蝐
鰷
鱨
鰋
髽
踁
蹔
栫
嚭
鄎

鴡
鶬
鷷
鶅
鵗
鳻
鶞
鼆
犫



黈



敳
戭
跦
禂
鬒
刜
鑋
愸
凾

鵞
絻
吿


蠜

咮
轝


蓻
斚
焮
撊
飂




鬰
帀
庈
袀


衁
輹
孼
僔

摏

胹
鄇
觵
觩
謩
惂
鄐

躗
凷
騣
胠



掫
翣
奊
罋
纑
刅
覉


酀
渻

銔
燀
萴
痎

鞛
鍚

韠
繂
鞸
琫
珧
帬
玊
瘈


雂
妵
獛
楄
笭
酁
眕
軥
揺
婤
姶
禇
駵
竀
韤
嗀

眅

塴
藋
蘀
絿


陓
邧
腯
瘯
樠


慁
猈

昩
浺
萷
驦
檏


婎
頯
腶
褽
繠
橤
崌
崍
姮
傜
嫪
毐
縧
碯
僽
轀
諕
濉
鈚
儾
抅
攮
踘
騢
悊
矬
榠
礧
堥
塪
哳
崷
鉶
墦
嘑
睍
僰
譍
礲
鱠
攎
敀
薳
歋
璚
籕
敇
鮆
擪
篔
簹
裌
逤
粔
籹
矉
綷
箆
曨
潄
僛
歕
嵪
籧
幰
釴
趦
趐
嶰
弆
睱
跴
綹
伇
湩
愰
攉
阤
輥
▆
聻
飀
鐼
脝
彴
藨
噇
笤
剺
懡
磓
鬖
鈯
楖
潙
罾
拸
揦
駈
糺
峊
殗
瞹
靊
鏇
幨
頳
岝
崿
鄽
耹
滮
餁
頍
掻
皜
瀄
垧
苺
嶝
罇
暾
嚬
嚶
蓱
灇
欦
縏
鱟
鷇
鯆
鈑
帓
霢
糨
冱
磂
埦
埝
齄
噰
畠
腧
韮
螩
賷
餑
鎪
秔
蒽
鮝
饃
餹
鉽
鉣
錞
籯
霙
鶖
罏
畣
靑
騈
筓
尀
嗗
淸
裏
楡
躱
鏒
嗏
塡
颭
挷
飮
篘
灔
恓
嚦
緖
甁
姸
呑
瓖
犵
髩
鯷
嬾
糢
暭
猂
毺
啣
捊
橧
酨
悋
鶋
僬
趻
媌
洏
隟
耼
麰
憜
毱
騞
誷
捿
惔
頶
偘
坈
罻
妷
柸
訙
膄
昫
扸
磵
苽
艅
艛
俲
唅
赩
禴
謏
緆
絇
蜲
緶
盰
韈
吚
荕
訄
苃
岻
呞
偱
釭
齃
矒
儨
孋
鷳
祑
胈
籄
拕
庂
檝
湑
繿
殕
抂
侹
囅
烶
訧
塿
稡
髈
舦
杚
乿
沠
裠
辳
蒵
爏
罃
鄓
眛
鉯
鼂
絟
葘
鴖
鄿
蘨
緐
鋗
樅
韑
厔
炟
郺
縯
飃
顀
弎
獀
皝
傉
瀎
湝
昿
陏
蒷
巕
瞾
瓃
謓
祋
垍
鏄
岕
餸
鑙
溵
庢
鏱
玢
倧
哸
秛
杋
杊
莇
脬
秂































ピ





й





怊





































琿











︳



瑭



釺



︼

鈁



︷
┉




ガ








ㄈ


鼢






逯


┱


睃
碹












肷



鷉
棙
繓
摵
辴
顢
頇
髼
榾
柮
餈
嚗
挌
穓
藞
嶒
溣
鬈
咾
裲
耑
褧
驆
烺
婞
篰
燇
倎
饟
趓
恟
甔
詑
刱
灤
翀
媺
趍
漙
扽
坱
圠
傌
褆
鞂
噂
倥
缿
秷
耤
惷
睊
謞
柂
囓
淟
涊
苪
冔
綍
簰
萟

峕
朩
剬
迒
磌
恠

皭
彃
娯
凥
觺
媫


偼

詄

皃
窴
駉
樷

埶
禡
侲
敺
酳
笇
綘
眝
讔

諆
謿
麫


喣
摠
埀
翺
駮
鈃

陒
洔
揷
牋
噅
冮
灋
烕
麏

籖
﨑
攈
擥
僊
宍
藘
鞹
肬

琹
磝
碻
荁
薧
瀡
儃
蚿
螗
遝
崨
嶪
嶫
轃
鱓
颷
勌
臋
槬
桍
飇

禈
瀌
喓
泬
晛

愡
戅
憁
閤
赲
嗃
朌
轒
癍
芄
痜
砐
穭

芧
坆
杮
涏
珓
礅
瓞
鈄
魈
崞
埿
惣
彍
昢
渀
唩
儍
趿
犙
鞥
硨
輭
慇
跈
躃
襍
閙
埜
柈
鞵
緉
曤
焂
匇
簙
蔴
ぱ
豯
ζ
觻
浿
漒
ダ
灄
涫
沘
ど
┙
ぅ
蹀
傯
竱
艚
洰
厗
浭
椴
滱
湡
嵛
が
ㄜ
潵
秮
倴
滆
潚
籪
漅
┠
﹀
鋣
蒗
ヴ
ㄕ
齾
堍
奣
灢
蟛
畈
葇
鱭
洘
梘
旵
ザ
傪
だ
崮
渿
滳
莄
澅
甤
鞽
岈
嶗
夼
礆
蓒
褄
礏
硰
厙
硇
礕
峁
穘
ぞ
浢
濝
踥
盿
ヱ
谺
ɑ
儹
滭
摖
篏
蓩
鮖
ぢ
澺
瀙
汮
ń
漈
嵹
堋
湭
渼
ё
泎
篎
ず
┯
ㄡ
┒
鵌
ば
狓
鳱
鋑
纋
揟
扜
胉
鑮
埡
ぎ
鄨
ヵ
滈
眆
狪
沲
礚
滶
垸
湕
潱
ぐ
瀖
汱
澕
沶
漹
黬
瀴
莏
譧
げ
ぜ
洣
荶
狤
狑
羍
櫧
荋
覤
で
篗
ぽ
蘪
┺
淜
縨
╉
ヂ
賎
砩
鮚
欏
鰨
鏨
釹
ю
馤
縼
ò
⑺
唚
ㄖ
粞
ǜ
骱
伲
┦
鎘
∪
崬
腖
ā
鎦
焐
⒃
ㄑ
骺
釕
蚰
洭
潿
戙
韼
浛
鰱
呇
艼
ズ
澪
稢
虰
岜
淰
粇
嶅
芶
蒥
賧
獹
踲
佴
荍
卩
楦
鋨
⒂
⒏
∏
鎄
筧
糚
狉
獉
狫
狇
礟
鎝
狢

妺
駼
懴
袿
穏
帴
柹
秺
橊
鏁
饙
瓈
畼
頔
躞
嵓
媦
憀
蟕
蠵
蠀
蛦
蟦
螆
蜨
翃
菂
穅
褉
笻
剏
醶
埧
韍
墖
棅
崫
	
眽
闦
顉
硏
灺
雈
寕
扄
淏
颻
禲
峚
彠
挿
穄
鈋
玅
褕
琄
椶
猘
黁
媠
鵕
嵰
賖
焬
憇
醱
簩
袘
鬄
駊
騀

抴
臙
蓞
隑
鎁
鸊
篲
鼮
滻
弮
愞
彲
錬
鳷
沗
弚
羉
搫
屴
衉
靘
檞
鉊
椾
蠺
脁
頩
枍
矟
鬉
鬅
桫

昰


桱
竁
珹

晆
漋
墤
蓲
瘃
唘
塼


峝
斄

噐
簨
穪


隞
坶

騟
玁
烖
齓
姁
珄

溤
傼
溳
哤





摮

橁
郰
亊

迃

桞


俆



嫈
撠

陿
褏
嚪
轊
莝
摎

舃

鐻
洑
矺
緤
齱
壐
圅
躶
凙
頬
曺
忼

箯
駡
甀
瘉
廼
啑


娒
緁
耡
鋋
禝
櫂
鏦
穨
訹


鐎
醤
筰

貤
輣
泑
窐
籋
迣
釱


曋
暆

覂
靬
黳

籞

伒

詋


馯
縰
棑


傰
秅
謼

孊
筞



尭
撽
夣

靁
謷
篹
暁
袙
镼
羛
聣

鯾


麊
跕
畱
卾
襌


檽
疉
灈

峗
鄳
稒
傿
慬
陥


昜
臇

樍

妠
觝

掦
茟
憿

怢
拑

酧


瑨
瓆
祤


罼
稸



箿
訩


搸
栕
竸


譂

粛
衟
犆
俢
壌
寑
禓
塉
櫌
彜
惃
氊


宷
鮦
霦
儶
晫

壼
淊
璯
橅
抎
郍
岨

聡

矅
礌

椱
幍
懮
挬
嶻


祍
飊
姏

粰


旿


埓
宭
渒
泿
馛
贜
柦

銕



齴
麭


垜
忷
堌
渽
杫
輬

銶
檦
諙
琕
緭
翂

𣈶
湬
琡
驣
嚈
荗


凔
浟
齘
膓


嶚
煕
鵃
凓

賍
秿
嬭

鋧
鵶
甎
霫
蔍
璒
瑳
懀
蹖

娬


齩
頲


爯
巓

欀
笲
腏
誺


逬


悤
扢

撡
啒



緍

塠
璥
曌
欋


晙



鸂

彂
朒


瑝
晱
鉷

埐

憕
璬

潏


佋

崟


峘

茙
丅
醸
仒

貀
嵅
娖

竉
傔
涗
湽

潾
昈

倰
尃

禠
艻
肙
暀


醘
鐬
栰
娕

凴

餋



緷







騬
蘷


劚


翷
吥

劎
穯
詌


羓
檡


豋
貮

楀
鍞
騺
岯





灜

濓

誎


齗

咓

侚
鼛
壦
鑴

琖
蚉
惉
懘
鈢
冋
觷
牐

俻
圑


丏
岞

怘
麪
肻

眂
墪

邭

嘂
楇
盭
枤
乣
橪
袊

驘
璸
祾
霿

譮
徺
棌
櫖


剳
淢
讑






璊



暏
抺

崓
瓐



琸


閺
翶
楳

榯

軡
濜
甡
揑
騒


逥
牥
佀
琧
躣

惥
墝
菻
甇



淐
礮
溍
澴
恮
搌
濚

暙
奫
滀
觹
簑
箚
堽
淛
謜
昛
謪


鐏


鴐
仼

璲





驏

慔
樉
熞
禑
涃
蕯
楧
鄊
堒
煓

橞
炆
鞺
鞳
熥
溂
澖
瑺




煃
凅

熿
埈
墡
墺
暊
濙
烚
燰
帎


洐
郆
焟
煣




軓

諎
縀
壏
賉
癿
葮

膫
椆
杬
橒
巏
榰
梈
橓
毼
敭
燫
鋠


銧


鐇
鐩


梜
拲
樤
熜

襥
謮

矙
晭
檥
鏸

鐖
鑛
鏓
穖
忬
剠
濍
橏
堉
疁
埨

晲
筤



綎
畞
撦
哱
昖
鑨
邤
趆
烋

凃
躙

燝
爌

珖
砫

抌


櫆
洢
俕

釪
瑧



釬
鉁
鈰
瀗
諽
茪

樻
骴
牑
鑅
錝
淓
匶
旯

焒
齅
箑
懩
墭
亰

礽

氻
淉
炇
宖


鍙
鼒
垐



銋
磜
鋘

┰
朊
ブ
萜
蚴
ぼ
跫
ㄣ
炻
艿
鴯
袢
╂
舯
錟
尜
肀
瘊
プ
埯
厴
耩
ゼ
釷
哞
饢
鰵
狳
瘱
胩
腚
蟮
諔
睋
墄
碝
娙
掍
柧
嶕
窱
嶈
硾
蹸
颮
虦

鴰
轥
鴢
輚
籊
繴
罬
舩
啿
漘
僸
佅
忲
偆
蝃
磶
隒
陖
趪
瓀
墆
訬
鶊
罛
庨
潒
嶵
隯
燅
葁
坋
獟
獌
薱
櫹
苀
葿
瘣
鱮
鯋
鱧
鷫
鸘
稑
輢
猲
獢
蛧
迾
蹍
羂
揘
鷮
猭
髬
髵
鬕
韱
狿
摣
窫
獑
摕
艕
栧
鮋
馽
罭
罜
鱒
摷
鮞
浶
襳
襹
蝹
颬
眳

鵯
鶌
謻
薍
蠯
軯
螑
轙
鋄
釳
鉠

瑵
髶
囐
鼝
厞
埻
獝
魖
魊
稌
趢
趗
蘗
垝
嶱
嵑
嵣
嶜
峮
嶭
滵
楈
柍
檍
豰
蠝
籦

箛
砏
汃
蠳
鰅
觿
薠
粦
薕

鶙
輑
穱
秈
偠

瀺
灂
潀
裶
衯
葐
蒕
梫
楟
榹
樼
哢
鮷
魦
幐
摫
麖
渱
涆
碒
巊
岪
漨
潫
鯔
鯸
鱕
鸀
鳿
鶢
鶒
鷛

黖
镺
蕍
櫲
桹
櫏
霮
猓
趠
麡
猰
貐
箊
篻
澩
翏
諻
鍦
驫
飍
罠
阹
骿
趭
猤
瞵
擸
硠
虪
鶁
嶛
跇
踤
跐
鸃
敠
紭
睗
豜
鷚
蠩
鉺
魪
罺
鰝
僒
籗
侰
鰽
鰩
耾
摲
樳
誳
岟
溔
鄁
畇
厈
黋
崶
髧
抰
醳
葼
彯
贙
篽
腜
筻
覜
幏
裻
憓
醧
莤
傮
虙
攓
咉
熇
嬥
惈
悂
偭
轕
虖
襂
駍
嵱
羾
葀
嗺
撟
嶟
桭
呹
彋
旓
軑
漎
濎
曥
峛
崺
埢
巆
迡
堳
繱
烔
硡
墢
衱
襼
擩
坿
琘
玏
藾
茛
蟨
髾
媻
脟
腄
禼
揳
潎
巃
淈
湁
潗
翯
鰫
鰬
魠
鱤
魼
玓
瓅
嵾
閕
貏
咇
馣
芴
騱
驉
蟉
僤
瑉
磄
檴
癹
閜
狔
藰
偨

蠼
闛
鞈
嫭
姱
抏
廗
絧
轠
傱
嚊
驞
駖
岋
摼
嘄
獱
抾
琱
斶
熐
荄
磍
趎
鷕
蘙
菶
撋
脥
俽
幎
膆
懭
俈
纕
繣
撛
嵃

撎
岥
岮
矐
駪
楢
崘
沵
迆
峞
岉
烻
霐
窲
炾
飋
矎
嵽
磥
孴
蟺
躨
跜
舑
舕
跠
狋
顤
顟
瞲
嶊
崰
嵼
碨
磤
枊
槢
涾
湙
湠
麃
礐
滐
沑
矆
磢
漺
泋
澰
峌
鱏
褷
霝
漰
赮
嵥
砯
湱
奰
淴
瀯
渨
溭
瀢
矹
硞
礭
瀇
囦
汯
浻
沺
硪
峾
溛
瀤
鮥
鰊
鯩
觡
鏙
唌
鯼
蜦
蝞
鱝
蝬
蚢
蝫
蟞
魮
蜧
髿
珋
螒
毻
橉
萰
厱
鯥
瀿
琗
矊
綄
颹
鱻
塕
堁
塺
塸
憞
嚄
朣
娞
嫮
鰂
黤
憭
袃
睆
噣
鵻
騩
駬
鞿
颽
愇
昒
纗
縭
惸
窸
苬
顝
捴
怬
猳
剚

碄
羵
婥
佪
砊
眃
忀
鰡
絭
荾
掆
吰
槺
蹝
蔪
榤
轜
溓
艵
蹢
晣
峿
啈
湆
踸
岶
擟
顄
逫
霵
踕
鍖
輘
輷
惐
嘽
摍
愺
恅
腲
腇
蚸
蚇
蝍
疌
呟
撆
踃
嫽
炱
擖
鶣
嘳
姌
邌
躟
豄
砡
窞
窏
洝
蕱
鍃
矕
佁
踾
緸
笢
聑
剒
簻
磪
崯
欨
獦
魻
懰
磞
嚁
骭
厜
裖
崝
瞗
襛
嫷
娧
倛
姽
嫕
欯
齞
珶
魾
鯿
睮
臄
偊
砠
曒
澲
汍
蛚

跀
倇
愵
嶞
櫾
袑
嚜
恲
瑽
睩
蹛
菵
輡
鴪
矖
賝
薲
笰
貃
斅
搰
鍐
壥
阰
諑
忳
薋
篿
鷤
樧
譪
陭
陫
褋
唲
俇
爢
脄
鬋
朆
茩
餦
餭
搷
菎
蕗
岤
嵺
礒
硱
磳
硊
靃
漇
脭
腝
犓
漃
薵
蕏
堮
溰
椐
沋
蠉
嶆
崥
崹
虈
瞛
齀
鏷
酟
泙
隝

臷
唈
鱎
黂
罙
胲
禔
鼱
鼩
顩
捬
氿
躆
薖
綅
矻
踑
遬
叄
雺
輂
韣
敄
秠
諐
濇
鍉
噆
鰼
涽
彸
峱
恑
顣
烰
犕
傃
輁
餟
肂
甈
蟂
釤
謑
鑹
佡
囌
蠎
嚫
瀫
惽
鱍
醻
畐
溈
腪
嚝
嶴
榸
躂
饆
茘
臔
掗
擣
𣯶
蟟
孾
倳
裷
謴
鸎
屇
僜
忋
墎
寱
矦
襵
軃
饡
柺
誵
貛
曕
愂
杴
摝
韁
憃
擉
鑐
荎
痷
醭
皢
辤
阾
癎
嵨
皾
摗
艸
饀
趚
搕
齈
儱
姧
袾
挀
賮
瑃
晪
狌
笟
豏
躘
蹱
匳
揓
硿
黐
鏴
攂
嚤
玿
蠈
菷
栯
毸
躳
篛
狚
愳
藔
嗊
廍
檨
凎
睄
僗
捦
鼊
屚
鰗
虩
椗
謚
椇
楘
苳
嵵
磱
嶐
艍
爔
攚
ぶ
跁
鉍
狊
褅
劖
逿
挏
鎢
髕
驙
袽
顨
緢
痑
駾
滰
覢
侊
怌
僓
柛
缻
脡
瑢
胐
嵠
栐









掮

猹


















パ



羰

































































耖










﹄









ぴ





ギ












氌




猁


鯧




銻
鐓
砉



咡

嚆





猞

塥


┞



щ
ъ













糌

┶

綞


胬


櫞
僳


べ
阢












ㄦ





ざ







ご




















┥



ň















卌
痦














氆









笸















づ





慪



ペ


錕


ヮ
デ





╃



簺
齯







唪














┕




鋶
儧
楜
炌
祹
烴
垶
墿
壔
垹
塙
烇
墰
炑
鈧
煁
棤
灦
埣
勩
榣
儞
嶍
忣
╥











豶


脢









頄



臲
卼

繘















騌
躥
钂
撳
摜
螲
抻
⊥




腒
鱐
皫
脻
簎
疕
劀
醓
臡
箈
柶

摡
繶
蒩
絼
帗
鼜

儥
絘
敂

爂

飌
疈


漑


朄
韽
祴
龡
篴
焌
旜
薻
髤
豻

璂
駣
貕



轚
叐
橭
妢

韗
旊
轐
揱
齵
藃

甐
萭

轛
鋝
灓
攠

腛
盝
縪
趮
瓬
顅
閷


庛

帤
斞

氽
玎
箅
紥
怐
熕
鞱
塽
誃
鐱
肊
鄈
倗
徻
婐
臌
è
ù
ē
ō
ǎ
à
é
ì
ó
崡
儏
ī
á
í
ě
ǔ
ǐ
ǘ
ū
ú
嵷
ǒ
筸
ǚ
ǖ
鉧
涍
潓
醽
醁
湋
嶨
蚆
鼦
剨
渓
嵔
洴
癋
礜
掤
挒
穛
曃
茒
攃
灥
饠
襝
貱
焲
幇
謭
戧
牮
舢
犟
趖
郎
隣
磠
㈠
㈡
㈢
㈤
㈣
㈥
墈


































苤
燛
迖
蟷
偟
譀
棳
僃


丣
禷
祡





龞
栞
丵




趏


劋


丂

襗




橆

竂
諅

絽
戵

臩

‵
翭

缼
窂
扗
袟
啘
卛
餝
垾
鉋
坩
漥
秝
瘭
鰉
鰟
鯚
韊
歾
潡
峉
黆

靫
峐
澦
磖
鼪


寯
誴
譞
詥
盠
曣
狜
猔
禒
烆
暲
蔎
幮
姅
湉
葄
宬
澐
儤
瑆
瑮
枏
毾

匼
櫈

揅
齌
圚
痀
峜
嗁
熤
釚
瑔
燏

梹
駻
埫
讆
洍
鈊






窼
氉
熑
笯
渶
譡
骽
穋
挱
坽
昤
劙
靌
蘯
峷
駥
禟
屾
儎

尟
潝
埄
敹
儴
垡
峍
孓
夂
嗩
迻
挩
髊
抇
勯
椻
尰
鶪
誂
僪
啎
殰
殙
軵
糱
殶
膌
螇
觾
嗼
憱
妐
郼
厹
竫
訿
哅
悗
謣
蝺
瓋
鴥
闀
猏
罦
諯
噮
蚼
薸
捼
衈
毇
幧
璗
蝑
蜙
蟿
鄝
斖
槜
譝
膷
臐
膮
麷
恖
斪
貄
琀
暤
裞
輤
裧
鱹
茠
軞
梩
蜤
蜪
軝
臅
轈
蓌
衕
紷
樿
殸
忨
鳦
鶷
鳺
鴀
鶆
鸐
鶨
堣
籔
毃
幓
椊
幦
忺
臁
灠
蕟
蟽
衦



倠

鶶
鷝
樢
藠
痲
砎
觢
趀
橰
弍
膞
郀
闅


魒
庿
辝
挳
亼
丗
遟
鵉
綳
磰
芁
欓
圂
篢
蘦
蒧
謍
彶
驖
蘳
廔
簬
梡
嫥
斻
貒
霩
旳
礉
譣
譈
閛
莦
偩
谹
嫛
婗
牳
劮
悐
捈
嚍
掜
輐
魧
譻
隿
鷞
牄
徦
偝
芚
幋
襾
敶
匑
巟
稕
硻
蟓
蛘
桮
¨
諓
愮
柀
轞
崏
哠
輀
牏
撗
媄
砅
靲
圛
輠
蠾
獡
嵂
朠
榀
馜
怲
錊
昲
臢






鬽
頨
巙
塨
膟
傝
炧
昹
錂
脃
磏
璕
籑
塐
襭
碽
礄
蚭
屭
吪
扚
腷
敪
鏾
毧
魆
鰦
擤
娗
謈
敁
蜐
艓
罱
梴
巗

愻
琟

曅


譢
杍


鏕
曎




壄
詅


櫄
琙








枮




珢

崵
溙
惤




稉
刌
玽
渮
垻
灎

瑻

桰
箟



澼


涐
譱
貑
鍫
嵏
曓
嵳
巀

眗

羱
睂
朸
灙

溮

崲
棸
裵
鯇
膉
腣
脀


頖

桊
昮
歶
㓨
瞘
夃
朻
櫐
蝒
枖
榡
裬
抭
廲
輖
顁
觤
羪
蚮
塱
羢
袡
髐
磃
詉
爗
搑
麔
麎
蘴
諊
靋
舝
浘
詍
泈
畕
蟚
蝩
纐
莔
哻
藀
絥
蚻
秞
幩
钀
朼
鱯
鮧
乷
籫
韘
蘠
蕿
稙
佸
鎒
詻
舧
歗
羫
胦
啍
墽
檕
橀
駂
寁
魗
咠
歬
觛
裦
妦
瀐
嫙
婘
頾
鞎
攕
藚
蕮
栜
鶛
莐
檓
莍
齝
韏
馵
錿
韖
沰
襺
衃
涹
鷊
慅
嬼
蕑
莟
鉹
蟝
鮠
羘
鵹
舏
纄
竗
蠨
畽
蟰
坣
墥
揫
緵
蹎
菣
弞
藇
羜
醠
脕
幝
痯
鎋
羦
榢
聇
玸
鎎
瑲
緟
槸
膗
膁
噳
藬
斳
幠
弣
犉
齥
訅
踨
傓
僾
蚷
膒
抣
饛
瞔
稛
桋
脺
閍
攋
箌
藄
蓈
穧
珕
瑅
觓
狘
鈓
恜
傞
莃
弲
饇
玴
眏
蛍
烓
豥
檌
蔱
羒
迊
艁
宨
瓝
宑
壃
陾
蘲
梞
犅
熂
栵
聝
耮
韸
渕
秜
穈
溞
鎍
醹
庪
磛
餴
侞
呭
懠
虭
蛥
蛒
蚞
莑
胇
秇
爞
玪
鞃
箂
缹
豼
勴
黣
閐
庤
椌
榟
箁
簥
茾
鴱
苩
嗿
紑
駜
駫
驈
畍
騝
驔
驓
蹗
嶡
冞
紽
鬇
鬡
抯
霟
霯
瀶
喼
竐
炓
竃
輎
啹
懤
唦
喗
吙
唻
鑀
凕
埛
晅
垊
呣
騘
呮
踼
覰
銊
飿
泩
烗
噖
吔
霳
呚
孠
潨
虲
浱
漍
濿
淁
乹
嬝
喡
唊
唓
曡
嚰
唭
炩
鐥
呯
橔
吘
呧
咴
勂
焋
餎
筶
餏
瓓
嗈
摙
愶
喨
悎
炴
鎸
廘
爥
蕇
輧
鞄
懏
鶏
淣
魓
萓
絸
蘻
亠
槙
榲
旤
襏
暯
蟘
雿
雴
襫
籣
蚛
矃
齆
爀
噷
珨
櫗
溗
襈
逩
匌
哃
聹
鋾
繟
祌
龥
灧
蝅
綋
鋀
瑿
棭
葋
覶
虅
恛
耵









橶
茞
蓾
苙
戥
碫
篸
魜
魱
詀
駷
毷
屟
鯶
蚹
晈
洇

苶
禵
酕
醄

蓤
泘
寠
韄
蟩
鬑
帩
煹
鐈
氋
躤
阧
鷶
黭

櫑
媰
咶
輲
啽
檈

矑
贉
嘐
瀩
玨
箵
飤
彣
氎
縩
毰
虇
鰜
哰
鱊
鮬
昐
昑
鵛
褦
襶
鐀
枟
棴
帣
浲
磹
檋
焻
汘
珃
稇
幈
歅
玾
鬙

釲
濧
薗
稨
娿
鵚
蕹
鬠
鼟
鵊

繀
鷘
狧
獿
塯
犏
盳
飁
埥
躠
暻
昣
稏
谼
眑
嵖
釠
浽
篺
狾
榿
耞
籭
嫏
鎤
窡
鬝

愲
颾
飉
颲
豩
螷
碥
猵
じ
渹

姎
鈈
鋊
葠
鷾
暡
馡
蜄
眜
鸖
甏
嵿
媍
扅
僙
蚏
錭
峔
蘤
璖

坮
媂
熭
鏏
襉
鬌
芠
昚
篞

霒
皽
跔
盓
鉥
瘒
鯹
岦
菭
縬
螊
爧
螸
耝
窙
谾
跭
熷
钃
呺
麙
癠
崀
奝
詾
豽
婠
娺
妸
隇
鱁
鸓
阺
恞
搝
翵
煪
螴
蜳
撶
蛜
蝛
耭
搋
碅
襋
懙
炠
婍
崠
楑
寴
舚
爉
齖
蓢
璏
椔

氃

雓
惼
讝
憻
矂
熉
皠
黫
炲
謱
帵
帍
楺
棜
盉
鏀
橕
鈫
尥
婑
穾
嫇
蛁
睻
洀
篊
鮔
傏
蒃
牱
颩
衸
鮇
豅
楏
熰
黦
奅
覕
暒
譐
誻
殥

匉
蒦
覭
煋
媆
甊
琈
犼
釽
廎
鋕
珔
翪
镸
菤
碆
騿
穐
翿
韒
袎
銴
珛
澝
搣
梣
嶾
熣
侅
礝
俍
狆
朖
簕
廥
喛
媊
鋚
瑌
蓃
蝂
矓
銙
鍴
扴

烒
盋
芏
憣
蔨
莥
郘
覗
肣
虥
歫
齼
弡
俿
怇
跙
蝜
蹃
鍸
璔
鷈
鈲
鼄
摚
棷
姼
圽
譼
絯
寏
軶
黅
駚
誋
麐
蝡
攩
醼
臎
蟙
嶉
翍
錤
蹞
釯
眲
趹
髇
靭
臽
儖
ヰ

稬
譒
尗
呁
厀
邞
罧
娽
龣
宔
檷
黵
汿
啌
嘡
珇
謰
懞
咅
嚘
籢
煗
蠠
鰹
匵
蟁
螔
娷
隖
憼
瀃
猧
鏠

匟
螖
袺
跒
凘
孏
媖
魫
炡
皬
儩
戃
艗
艏
霱
櫶
綨
郉

垼



袧
袼

綼

湇
稰
腵
蔆
糔
醷
餀
餯
肵

兪
糷
糪
腍
怭
餠
怮
齛
襓
棥
蔙
媔
揝
襩
攺
鋳
杦
扏
畒





噽


陗
圡
毉

鉆

佊
袐

宊





櫔



躰
亯


萈


壵


覀

峓

喩
辢





篧
籱








菨
丠
爤

駠
梀



堛


顈


堩
秗




殈






稁
壷

傹
蛢
犥

寽
夨
栥
宎

醈
昗
吅








揗
廴
猌
皀

戼

藒
藑
濭
鬿
嵞
蠥
鱞
牉
唴
惀
縎
曭
駶
霠
芺
葌
嬬
袉
銵
鬤
蒪
煔
鰿
壛
慉
嶬
柭
譅
岒
悇
憛
甂
眐
怞
蒶
舨
歁
鵔
坲
瓥
傽
徾
蛓
顠
跓
孈
蚗
蟤
餻
籸
搧
豍
疿
媯
嘺
儽
┬
┼
舮
裮
榞


嶤
僢

詓

竆
詨
傗
緛

謵
硋

姢
嬇
褳
蹪






媓
鮌
觟

捪
撌

鴸

鶽
鬺
痝


謲
舓
犞

軧
糦



齳
斔
螤


羀
獽


匔
瞯

刏
韇
匴
鼏
衻
棞
醙
腢
挋
齻
鬊
坅
侇
鐕
錧
靾
搹
稺

燓
椈
脠
簚

襡

楰
昄
磒

滜

琌
丒

蘎
菞
鴼



痻
鶃
趩



鮊

迧

亱

姟
疷
癙


滺
蝱
矸

菒

繬
埊
絤
袬
裚
榬

繑
瓁
譕
秎
澑
讂
揨
浧

菕



隫
怸
赨
枎
蘟

蟡
蘝
駽
笩
甶
盇


赱





偸

眣
獋
湶
噡
秊
姃
瑖
闂
抈
蔉
踂




鱢
婾

矠

褍


嗋

慹
椄
哯


阫

礛

蚈
汵
翐

暿
蘱
囆

懁
佒


譿


蜹

鱙

碬

迿

妎
髄
錣
顊


鄪
嵮
汒

鱦
椉


瓽
熻
墣



魭
蝢
踒
泏

杘
懯
婩


驑
尩

噑



軦
蠸
誫
蘁

誙
錎
顪
豀
誸
譹
憰
垺
軱
謋
腞
繲
惾

埌
帠
胣
聏
窢
犿
緳

繵
竘
嫆
襒


俖


跿


鴧
嚖
逜
躝


雧



濅
龝
靐

挴






愗


崪
懧


鶀
鸗


砨


虷

湥

蕼
瞡
儢
衶

恈
呥
觙
擏

騹
謸
餰
帾
摱
愅
榶
蠫
譑
嚽
麮
攭


惿







膹
肳
耟
靹
秱

賥
翢
釶
鶮

嬆
筡
膲

庉
硍
霋

俉
黓
寎



褢
蔈
梪

毊
寋

韹


竾

寉
緥



鈶
繉
旪

螕


乕
阠
鮯

溦
浖
厒
崋
瀱
湀
厬
灛


嶩
啙
悳

陚
耚
耠

耫


貾
蜠
醟
羠

躈
瓵
鮿


譺

筁

杸
衭

鏔
釨
樐
鞪
絠

桲
楥
仾
跘
裗
衴
褮
袸
褑
纀
鞢
斢
黊
黇
皔
皏

黸
黗

艒
艜

輫

筄



箷
棎
篕
徛

鍑
錪
鐂

頙
菐





鍏
檧
剫

磫

罞
飵
虋
麳
蒮
蒚
蕵

簢
笐
笣



薃
爑
芀

鴘

鷢
雗


鸍

鶾
鷑
鵧
鳪
鵫
僆
鷒
鶝
鶔
鳼
騉
翑
驠
騴
駺
馰
騜
騽
騥
駩
馻
秼
犘
犤
犩
犝
牰
犚
犈
牬
犌
犡
牭
觠
羷
羳


猣
玂
狣
犺

豱


豠
豲
羬
麜
麆


嬎

貗

鼸
鼭
鼣
鼤
鼰
藣
翈

螰
蟧



蛬
蚟
鼅
蠰
螱
鰴
蚅

蜌
蠦
鋬

鏂
弻
鎜
珒
薐
礥
熀
鉎
镻
蝁
狵
虤
龑
壾
晵
╢
肼
秚
膡
⑼
錆
⑹
⑻
⑽
⑾
⑿
⒀
⒁
箳


妟
韥

枈

歝
嶣
蔩
掑
褞
蘌
拹
燢
矄
熽
鋉
矌
唒
熝
謢
峟
丬
晥
頪
筢
銄
摃
栍
穥
翲
癏
瞃
睸
癪
癳
秌
癦
癨
癵
睲
瞖
耈



禯

嚔
憟
鷅



鮛


蔄
菾

芅
鴮
鸅
蝽
蔠

鮅

鷻
疧
袩
鳭


虁


蓛
嗵
褡
祬
躦




鍩
┇
グ
ド
︵
忓
鵄
璭
箞
輄
儭
扟
褝
氀
鮽
篵




憹
狅
郋
疘
洓
泍
溹

劯


洠
蹚
綊
竻
贌
磘
拁
賘
啚
捹
挕
僋
脋

烑


螡

輌
鈵
嘠
桺






贒
亁
蹾

婹
偑
庽
歒
軐
囙
湸
硑
獧
齂
軄
圲
蓅
咰
飺
瘚
幆
猍
愯
亄
絗
唹
凒
暣
凚
霃
岓
榙
楉
瞱
賏
嬧
莰
覌
顜
褀
蛈
谻
籺
仌
亝
屰
廫
鶄
舽
遀
苿
歖
雥
鴷
拞
滒
睧
礗
褤
炵

瑈
錇
ㄔ
芲
旑
肗
蜶
梍
衇



鹶
哴
叴
慯

儑


寷

艐

訦

蕐
晠


湌
釥
豓
僷

嫢
徥


殜


愃

憡
瘌


廀


孷
聓

荲
鱥
恔
讉
訰
癁
瘎
朹
抮

嬯
倯
孄

穙
袌
袏

繜

褣
幒
衳
襱
襣
裺
祽
裪

襎
褹


帞

佫








笿

瓭
瓺

樎

帪

鐰
朳
淭

柫
鐹

繏
筕
篖

柖
籆

聉
聧
弿


伆

暥
邎
坥

悀
槣
矤
膐


笘


叜
懕
婸
懹
劺

遾


焪


覣

攍

豾

菢
豞

鷎

鶭

鵖
鴔

鸁




軬

舼
欚



儰
偛
吂
譇
謕
遱
嗹

犳
佂

矲
恎
譠
忚



揰



繷

蠽

蝚
趜
蝆


蟅
咟



蛵

虴
蟴
蛨




虶
蝳
蠿

偄
愋
蕜
娋

逳
楕

尐
乀

侼
顮

憵

忦
苂


鑈

丮


遃
鐛
镾
扝
揁

弌

抍
撜



扲
漮


隓
襰
踚
嫴
籅


鍣
梋
餣
饊

堬
墲
榒

貭


韟

綧
傶

堷
氺


韕
窰


筫
鉒
碈
笝
毤
皟
蠄
獴
襔
秥
潖
洬
炃
穼
硄
砈
蔃
褟
鮍
榃
冚
艔
俷
柊
崳
屘
妚
燶
匓
搲
臖
蹳
秴
粣
茤
胵
鑦
槡
鸏
淃
汓
碸
哵
唽
魿
鯬
魨
臒
鰀
鮏
鰤
紶
蠌
蠬
鷏
痳
葻
樃
梌
髰
∑
苮
菄
樶
╡
抋
髍
瘄
靗
庒
埰
爃
梉
忛
掭
硂
坘
鑗
泀
鴗
齤
畁
刢
籾
猯
坙
歨
萲
搇
竏
痚
羐
畃
ˉ
屷
粀
陃
陎
瞦
磟
莣
簊
訋
魀
砵
簂
璾
辬
憅
骾
渏
砿
巐
錀
鶇
裿
磇
鞆
晀
竔
僯
矘
厁
鷌
藆
觮
厡
憆
沞
顃
辧
僲
髗
蟱
鰖
僀
餷
鐿
斀
萶
踷
憉
豣
聁
靟
峬
瀊
灨
濴
杧
籵
焝
砽
蛌
毴
礸
珁
乴
竨
絬
豧
滣
妔
蔰
猠
鰌
乛
鮳
簅
顬
甮
倄
旀
攑
妅
餶
竓
￡
瞴
鷼
厃
祱
飅
釄
畓
祄
疄
葃
鐟
娐
鏬
鴬
拫
蔲
攗
踓
橎
錵
衐
杒
趘
刴
鹸
筨
蓳
篂
惞
漟
筘
辪
帉
鈜
鮁
甧
槹
譵
鉿
醝
櫀
鍂
￠
騛
爄
渞
煝
槴
罎
欴
鮰
梙
瀥
靕
鱳
聈
鋯
褃
嫀
稴
弙
攐
髉
騡
萢
蘫
蒫
縺
躹
檒
勀
阣
繍
斴
磗
雟
宱
廯
韚
艀
抲
黱
敡
俥
骻
朷
榗
皻
鱰
喌
憪
蔳
靰
弐
倽
趉
僼
蟳
嶀
蕫
崊
巚
趛
鈩
艪
竬
峢
妛
弉
嚑
慻
癀
胮
罀
璴
涰
渷
妕
鵳
閰
羴
粂
藦
眖
痽
閖
汑
魕
阥
桚
坕
捾
癴
炏
浀
弝
仱
欉
藖
遚
憄
鰞
砤
蠂
掅
媋
靪
壀
鑯
啝
絩
搳
鉬
簔
襀
刔
奀
喦
褩
暩
詇
旈
涀
梛
銁
垀
鬫
慸
皒
祒
祶
枴
萿
楒
鐊
阦
踭
譩
聐
嬺
壨
魰
萻
鬳
厸
苆
醗
嵢
秙
艉
駀
玶
偋
醔
椼
麢
鮜
鰏
澻
栮
踀
竵
銪
佧
猚
鼀
鼞
洷
徲
鱵
鴅
筽
媎
阷
鴓
坉
檆
糽
葨
饖
舥
偀
雡
餇
荿
藢
蚽
乨
梤
砳
鎟
魶
辸
鴹
湒
皊
瘮
腀
灴
橾
騪
堶
穚
楁
嚵
墴
踍
乸
衚
洦
鷡
俼
蘣
籶
爒
悹
驐
靏
鑜
鼘
壣
羏
笉
唋
虊
峧
靝
暳
漝
鷿
耛
玵
爴
剅
龏
阩
櫒
仴
迶
瀓
峺
囄
焇
瑘
卐
嗂
覴
弴
歱
爈
錸
厇
莈
栺
鶓
熗
籿
緕
袥
硴
紌
鬹
衑
鍆
銥
鵼
戜
誮
渁
颴
焏
躢
豤
▓
鮵
萪
錹
庘
瀔
穝
俧
蘰
鉮
迼
妶
穕
嵀
琩
紪
墂
賟
鍅
鍒
衏
幱
浂
鯻
糩
嬁
峠
偮
莕
撀
杁
鯝
鴑
璼
泴
纙
瀂
鋔
埲
仈
鱩
緂
敼
盀
姳
蝏
觗
妀
抙
塶
彉
榵
壗
憌
猀
鈟
艂
鯴
軲
鯘
媜
蓹
魝
澾
畉
蠗
膖
鎑
礀
贀
廰
濦
湗
鵣
堎
棇
雵
歮
笁
徫
叀
棶
瑎
捸
睌
虨
鴏
鸌
鍄
岆
婝
苝
槦
坖
稄
欈
玧
侴
嵦
嫍
讄
拺
蛅
潈
鰄
沀
渂
濣
焥
枾
葜
硔
碀
囇
裉
囨
瘽
鴜
凼
諿
鬂
鏰
鵵
玣
靍
倃
蛂
鬸
兡
帲
隌
齽
峼
鏶
弖
杄
鏿
垗
浠
┭
┗
螙
膔
匧
嗱







曯












糼


矝







愝
烮

鄌







逎
挮



勭








膶



朲




腃
僠
鰶
夒
鶿
濲
肐
錼
偢
楌
鬁
熪
慏











韯
碲
樒
娸
鰠
峳
壂
勮
蕀
蜫
豘
爮



祮







緀
鉐
湻
刞
伳
蒠
棈

訜
怉
彑



婔
啔
斺


聟


枽
嚯
槯

幚


馪
缷
叧






遳




鬗







胟

嶃






毲





崸



鈛

樌
溸






瘜
蔧
傛








翖

龒

嗕













郣



褈

墵

貹

栨

枃




暜
螋
焍
鵸
鵺

獜
猼
鱃
碖


軗
笍
堢
―
趔
暺
踜

肎
蟸


礹






捀

┩
ぷ
ㄩ
ジ
ぉ
茚
ゲ
ê
ㄘ
┲
ぺ
劗
婟
靎
賗









砬


鑥




















┾





















┸


ㄐ












墚


鶥


バ






























狛






弳











┢


鏳
鴙
朥

駇
鯏
嵍
綐
髜
苸
鰳
吤
緔
鏪
酛



蘾
薞
鸉
敱
哚
搿
屫
悏
嬮
豑
黺
絑

殬



ξ
釙





錥

兦
穤



霛



柕
鳫

剻
箥


糫

芌
寣

娪



蔮




潣
薽
荵
蘈


蔐
蚙
卙
鮂
鯦
鯞
鮺
鷱
鷣
鴾



蠷
痸
嗐
蕶
唿
撴
榪
棔
銱
袇

簆

桙
夻
悑

堫
讘
鐷


漌

茰


籉


繊
軆
韰









玒





﹛
﹜
偤
喞
撖
筺
竤









酔
鄥
汥
哖
謆
碊
鰇
埮


蔶







楤

鮣
覙

扷
龓


覅

迉
蜅
崣
礠

靅
霼


庰
剹
萒



炋





偣

鰛




挓
晄
踇
詙
湦
俀
錔
郩
餜
棝
娡
櫡
鮈
蹓
蜰
嬓
蚲
瞝
皶
稖
迵
絎
啢
趬
梸
壧
螹
鱋
磼
徶
媥
跮
鱇
嬐
鯱
摓
鮸
鮟
鮤
冎

卋


熮
冸
輺
籒


匸
歺
曐
曑
厽
冃
冄

倝
洂

搮
侕
捓


鐌
絚
僺
熚
邆


誗





篬





敤

繗










瑍
















腂
猸
涺

欼
﨩



螎

腁



妱

櫘


錗


栿
燲


錏


馦
馢
雽


癅
濌







虉







巣


麉










鼺

鯮

魟
鱀

蠘











蛃
蛝
螝


蟔
蛷





顐



蔅
婯





艆

毭





餪
砇
蒤
藈

蘮
蒘
薡





獙

猦


翋
廦

屳

怶

禢



叿


撍
槈
耓
棿
侟
譨
殦

笶
膸
圶
悧
瘑
盄

銠


圱
恴
靯
溕
倸
戤
鳹
豿
趷
漡

鐋
彇
箶
簶



鏎


醦
鋺
蒓
癐
捵
輆
┄
錉
掽
礢
懓
尓
嚒
嘫
侒
礑
咑
慖
卂
媐
欭
嵙
騼

娨
籚
溚
磦


屖


衪

榺

兓



佮
皌
觘
娎
囕
岹
碷
丷
楃
隁

仜


鉵
痋
慒
桏
浝
栙

馶


旇
忯
姕
鈭



謘
鴲




欙
奞

瑂
鯕

覹
矀
幑
媁
楲



僟


螶
嬩
藸
璑
衧


忂
鰸
紨

祩
雐
歑

奃
趧
蕛

屔
茥
龤

蛕
鐜
嵟
肧
郂
娝

鷐
曟
陙
駗

囩
姰
馼
愪
魵
菦
斦
蒝



蒬
琂
堚

噋
陯
怋
貚

酄
慲
螌
奻
邖
婜
詽
娹
婱


葏
肰
繎
嬽
鐉
奱
豂
茮
菬
旚

覒
蓸
紴
誽

皅
謯


蔁
麠
邼
勥
軭
軖
鎕
詤

尣
嗙
騯
竲
埩

赹
觪
鋞


龗
孁



譄
揯
瑬
趥
揂
脜
勼
齺
肍
匬
丩
淲

鈂
菳
鈘

薓

抩
媅

覝




姛

搈

祪
洈
瓕

袳
垑
沝
芛

蘽
蓶
濢
秄
椲
齭
聥
盨

鐪

觬
鍡
鑸
鑘
陮
祳

敃
屒

阭

夽
赾
妴

躖
瓪
嶘
敟
垷

埍
嫸

僐
孨
辡
揙
肁
鮡
敽
孂
烄
曍
勽

祰
奲
椯
邩
勨
襐
脼
紻



徎
漀
緈

杽
疛
齨

栠


嘾
襑
糂
竷
蜭



媣
槏
梇
駧

伿
卶

痵

鷧
殔
菋


豙
忥

侸
埾
荹
韢

罊


蠇
巜
嬒



諣


噧
顡
詯

槶

頛
帒
洅

懝
濥
焛
敒
璶

伨


脪
傆
贎
奿
俒
荌




祘
谸
鋻
硟
訆
尦
覞
勡
篍
潐

菿

嫯
萺
夎
侳
樜
嗻
涻

墇
臦

摬
誩
妌
嬹
掕
懜
姷





鸔

坴
鵱
埱
斣
喅
驧



豛
嚛
孎
茿


墧
箹

臸
趌
蒁

噊
欪

翇


氒


嶏
匫

亣
楋
屵
頢
秳
痥
泧
炥
炦
妭
坺
硈

疦
赽
苵
飻
僁

蛶

眓
妜
勶
聅
纅
叒
趞
彏
逪
秨


縌
呝
垎
嫧
礊
讗
冟
坄



仢
蔋

侙


揤


嫼


龖


柆
儠
帇
謺
鯜
皣

姂
灱
罁
珬
鉔
麅
眰
矏
憴
憢

蕄
懪
袕

鋖
芵
莁
藅
蔜

蔖

蒛
虃
菺
蘵
芞
葞
袶
欔
蔝
藗

葟
櫠
榽
螜
蚥
蟼
虳
蜸
炶

蟗
鱴
魛
鯠
鸙
鷜
鷋

鶟
鷆
鴩
敊
鸄
鷵

豴
鼳
驨
犑



攱

縃
覻



















渪



亽




裐

鏧


冿



玝





遉





胒



枡



嚋

銆
斘






郻
扻

宩
墔


譭

焸


掝

齙
紤

擳

╁






鏥
呡
莌

頝
靇
塂
瑹
霺
簛
埁
爫
夝
藼
訡
厊
僡
庯
辥
驡
楍
禃
睶
圫
垥
鏋
姖
瓡
匘
卪
夶
坸
炗
穻
畗
綗
鏺
敆
垙
檭
鈳
璛
鑉
竳
顂
忎
莯
菛
蔢

杹
樬
嵻
螪
聤
蟖
蝔
魺
鯺
鱑
鮻
鱌
鰔
哾
鱂
鰑
鴊
璄
偒
伓
偡
洉
巬
鍌
跊
胋
諹
碃
綡
緽
諘
潻
妡
峖
轁
堾
圔
浨
昍
烠
迗
藡
姇
惍
瀈
枀
橬
妽
廅
赸
蔒
ⅻ




鐝
峑

硺




鴄
銒
揈
坢
礵
┹
╀
︻
禌

遆
鬔
嫟
巎


╆
礍
礖
礯
睳
礳
礷
睰
祙
祣
睝
穒
膧
觰
芖
盽
ゑ
玐
╬
珿
璓
﹟
愌
ゎ
㏕
蔸
–
︽
簈
㏎
㏄
﹠
稶
玜
︾
〆
㏑
︴
┋
㎝
ボ
﹎
蝋
〧
瓄
徍
睕
婌
瑥
磙
蓗
婈
瀒
菃


禙
鬦

贋



愩
幊
杛
裑
埪


熍

爖
鵍
鯟
埬
娻
蓪

樋

硧

晍
燑
粡
鬞
竼
鑝
樥
霚
靀
凬
堸



鍯
燪
爜
徖
憽

硹
鴤
汷

焢
霘
粠
垬
屸
娂

鎓
鶲



湰
笗

蚒
浵
鉖
蕽
孮
婃
髸

媀
嫞
隀
媑
檂
篈
桻
仹
肨
熧
暰
鍶
梥
銿
徸
炂
刣





縙
媶
牶


娏
欆
孇
躸
檱
敮
槼
剘
蜝
艃
粸
猉
帺

翄


寲

莮



粚
訵
筂
傂
倁
赿
茋
桘
錃
焷
抷



毞



戂
稵
秶


瓗


濨
嬨

禗
蕬
愢
騦
媤
柌

燍

鐁
滖
瓍




軙
秓





魳
馷
瑡
鶳



湤
溡

靻
焁
桸
隵
焈


悘
檹
稦
拪
狏
擨
眱
珆

弬



穲
謧


蕦
丆
鋫
蟍
螏

纝

峏

誀
袻

奜

鯡
曊
癓
媈


泦

婮
憈

澽


偦
蒣
嬳

鵨


畭

硢
璷

邚
桇
筎
岴

蘛


鍝
鸆


妋

麱
葪
綒
糐
颫
鵐
懢
幁

鮢
駯


帹
疞
亐
恗
晇
譃

骬


酑


曘
跍

茣
鯃
祦
洖
醏
庩

廜
峹

潳

伮
鵏
陠
鈽
柨
捗


櫯

軤
瓳
釫
鶦
喖
媩
鷠
螐





嗘
銈
胿
縘

蝰

鍷
漽
鍗

碮


詸
鑇
鶈
卥

徆
榏





媘
歄
腡
搱
劥
漄
娾
尵
摨
猅
慀
夈
芆

劸
溾
膭
魤
頧
垖
鴭


婄
湈
珻
呅

慛
凗
拻
燘
洃
痐

藱

揋
鰃

愄
詴
錑
奒
懛
孡
螚
熋

睵
賳
揌
溨
毢
噟
琜
婡


薼
椕


鍲
鈱
苠
姄
浾
堻
媇
殝
蒖
嫃
訷

莀
筃
凐
栶
秵

暽
芢
忈
覠
銞
蚐


竴

駨
毥

萅
旾

鯙
蜵

耣
鮶
皹

橨
馩
馧
珳
鴍
妏

秐
懄
嫤
劤
盺
蒑
煾

猑
犜
撉
旽
朜


暓


澊
拵


忶
燷
虂
婨

睷

娮
厵
笎
妧
勫
鷭

嬏



瀪
駤

坃
翧
箮
媗
葾
軎
溒
媴



擹
笒
嫨
譋
欗

囒
臗
偳
仯
媏
檲

蒰




曫



覵
勬
瓹



孉

槇
厧



敐
姩
赺
鯅
剶
緾

鍽

糄


賆

臱

嬵
婂

偂

奷
姾
騚

葲
鰁
奾
褼
珗
鍹
蜁
暶

瑼
瑏

訮

咞

珚

裫
鶰
娫

翴
噒
嫾


燆
刟
鮉
聎
旫

欩
牊
謤



藮
劁
癄


撨
褿
硭
颵


駋
巶
鴁
楆
餆
鎐
暚
讈
侾

軳
鶜
渵




宯
誟
硣
瘶
婋
笅

訤
棏
軪
梎
岰
賿
蹘
髛

釖
詜

蕔
枆


獔
椃


髝
髞
憥
鐒
妿
戨

翗
珴
鼧

迱

橠

哬
錒


犐
桗
崜
碢
踻
鉕
櫇
睉
挄

咊
柇
鉌
萂

姀
鏍
毠

愘
揢
犽

孲
疨
痄
笌

喥
膼
訍

妑
夿



嫅
峫
齇
謶
嫬
鎈
莗
蛼
蛽
褨

桬


粆



鷨
鐚
俹
畖
疅
翞
猐
匩

鵟
仧
埅
趽
鰪
摪
謒

艢


娤
騻


鋿
鏛
麘
頚

彺
眻
輰

垟
霷
劷

牨

灮

姯
躿
躴

嫝
岇

儅
艡

澢
闣
啺
糛
赯
隚

橖
糃
膅
欜
鞤
嫎
恾


匨
鑶



獚
穔
鷬

勆
菮
錓

挰


鑏
嬣

奟
嵭
胓

悙
錋
稝
痭
橗

棦
殅
苼



鴴
峵
婛
猄

樈

賯
橩

寊
泟
鮃

聙
啨

觲
徰

筬
娍
窚
絾
鶧
蝧
碤
鑍
嬫


萾

櫿
覮


奵
圢
榳
閮
邒
聠
涄
猽
鍟





閝
彾
燯

秢
姈
朎


鹷
睖


篜
畻
塖
陹
洆
耺
僌
碐
刯
鯍
膯
儯



顭

牞

恘
皳
浗
盚
鯄
汼
矪
燽
菗
嬦
皗
鉜

蝵
蠤
媝
禉

樇
鏅
臹
箃
郮
淍

徟
銂
騆
霌

栦
絒
烌

怣
糤

嵧

媹
腬
媃
渘


簼
剾
橷
酘
鏉
凁
帿
銗
葔

櫙

躽

軁
熡
鵭
澿
癛
鈙
忴
諃
軠
誛
鮼
枔
杺
攳
兂
嬜

侌
粓
雸
頕


壜

婒
萳
暔
畘
馠

魽
梒
澏
娢

鶕
蓭
腤
誝

灆
搛
檶
婖
鋓
煘
柉


嶦

嶖
硽
匲

嬚
劆
尲

輱
趈
娚
湴
覱
艬

鏩
剼
甉
孍


盕
箽
嬞
徿
琣
淎

晎
銾
勜
劜
聬
嵡

孒

塎
喠
煄

勈
愑
愹
彮
慃
傇
擃
硥
傟




尯
嬟
笖
肔

秲
稫
崻
垁
伱

嵄
灖
哶
侎
吇
矷

噿
璻
皉
萀
魢



泤
鈻




砋
訨
淽

逘

鉂
兘

鉃
崼


抁




荱
庡

蕌



坾
魣
垿
樦
槝

焤
蛡
薣

琽

荰
諩
烳
潽
汻
虝

熩
溩
塷

闙
掋
鈮
隬

鉙
簤

疓
嘪
躷
濻
鮾
癗
洡
軩
緿
霴
酼
烸
磭
刡



弫

訠

洕
亃

鵘
堟
勄

鎨
箺
賱
稐

忟
傊


峎
懚

裍
齫

伅
倱
輽
翉
呠
翸
桳
穳

鰎
鑳
奆
盶
搟
仠
刐

禶

蔊
浫


堹
痶
悿
奤
鉡
嵈
橌
蹨
魬

摌
唍
鋎
攌
晘
挸
婰
唺


覑


汅

喕
矈
瑐
箲
烍

灗

悓
娊
誢


仸

鼼
伄

苭

煍

綤
闄
蓔
榚
崾
镽
隢
捁
灚

潲
狕
禞
燺
捯
嶹
噵


宲
賲
鳵

騲

聕
彵

炨
毑
碋
鎯



捰
挆
跥
鵎
溑

婽
酠
咵
厏
邷

鰢
飷
藛
漜
膙
謽
涱
眪

棢
摤
墏
鱶

嶑
鞝
傸
僘
慡
縔

忹
攁

袹
爙

兤
圵
覫
銺
褬
翓

誏
挭
掟
鮩
窇
偗
撔
幜
悜
睈
侱
塣
窉
汬
柡
昋
煛

汫
矨

檙
鑖

佲
奺
镹

吜
葤
炄
媨
綇
鯑
涭
梄
蜏
湵
飹
犃
劶
勏

飳
啂
餢
砪



夦

拰

潹
棯
顲

菍
秹
磸


澸
馾

憳
饏
揇
喒
糣


疺
夵

魙
糮

筗
茽
煈


挵
硦
碂
諥
偅
苚
贚

炐
稩


竩
坔

潪
徝
劕

礈
鑆
妼

螅


亖

嬘
綕
覟
醀

翤
呩
伵

嬑
螠
袣
盵
櫭

蘶



犔
滊

䲁
藯


壉
儊
竌
鏣
濖

軴
迬

婏
詂
奦
熃


瘔
忢
縸
綔
摢
蓕

梊
偙
怟


閇
鐾

銐
稧


栛
蛠
憏
栬



疶
怈
壡

鱱
曞

巁
瓂

夳
軚
伂
昁
梖
珼
姵
襊
饚
瞺
琾

庎
楐

勓
欳

膪
庍
汖




賹
伌


犻

啛

銇
丯
瀻
燤
柋

皧

獩

歏
訫

藽

馸

梕
屻
賐
殾

橍


爋
鑂

縥

銌
旔
踺
禐



錌
屽


襸
薒
澯
攼

咹
鑭

鏆
貦
湪

詊
炍

怑
熶
殩
肒

鐗
偐
菚
灷
粯
麲
姲
牪
琔
橂

騗
覍
匥


擶
糋
篟
皘
惗
汌
葕
堜
媡
瑓
髚

瘹
魡
鋽
鑃

嘨
熎
艞



羄

靤
髱
枛
詏
焅
軇
軂
檤
襙

鐭
憦
袔
挅
尮



沎
俰

坬


獁
褯

紁
閯
誜
疜

攨

羻
摾
痮

誯
恦
姠
岲
焵
囥

摥

趤
塝

賶
曂

儬
曔
澃
婙


聢
忊
濪
栤


慦
畂
匛
駎
粙

竎

緮
殧
酭


瞉
譳
哣
搙


侺

佄

沊
癚
腅

婻
蛿
趝

蚦

悥
嬱
熌

敥
姭
覎
殐
唂
巈
淗
婅
陱
粷
剢
贕
鑟

騳
篫
掓
圤
雮

鍢
稪
諨




噈






跾
焀

蔛
媉

喐
哊
礇
棛


粶
椂
鵦
勎

淕
踛
錖

匤
髷
軉

媷
脨



輍
覐

燩
捳
捠
劅
肑
瞨

瞐
鑡

嗀
雤
鞊
譗
腟


潷


榓
淧
藌
櫁
愱


恄

嬄
趃

塛
蹫
笜
炢
袦
黢
箤
欰
絉
泹
蚎
銉

箻
冹

鮄
鉘

粅
烼
灪
爩


鼿


嚉
迌
堗
鍎
鋍

碿
匢
尳
垏
侓
鍻
欮
灍

憠
枂
鈅
爡
傠


怴

騔
磆

橽
礤


螛
揧
瓎
蝲
仐


鼥
秡
怽

砞
魩
幯
沯


頱
礣
銽


釟
傄
檫
聺
縖
洯
鐑
砄



諁
烲
孹
暼



擮
蠞
砓
歽
焎

坹
桖
糭

姴
劽
睙
矡
勪

硸

妰
擆
逽

焳
熦
烵
繛


讍
鑩
偔
湂
櫮
驝

牔

絈
塻

莡
鈼
稓
耯

僫
峈
臵

碦
磀
礋
籷
糑
湐

艊
絔
眿

擌
瘷


煂
貖
豟




鐴

坧

烾
嬕
瞁
炈
鈠

譤

墑
赥
惖
梑
漞
濗



惁

盢
儮
徏
鉓
揊

汄
嬂
懎

遈



烅


骮
熼
浳
鳨
圀
囶
娔
脦

爅
鱡
潶
釛
餩
忇
礘
鐽
釞

鍓
雭


嶯


鉝

歞

硆
魥
匒
笚
鎉


溻

龘
崉


抸
遪
囃
韴


熆
峆


昅

鉩
踗
錜

擑
艥
誱
蓵

徢
弽
迠
瞸
擛
鱲

聗

餄
埉

殎




筪
驜
鸈
佱
ꇵ
∫




綶
焿
鐤
戓
遤
















岺




囜


駌


叓
萛











盁












昘





柗



















圥

冭














凮




























◍














珡






匂


瞏

飸

鼑




甛
籨


盙
壿
















烉





匞
礼

舙




醕





鎠


熫


磿
徣

躛







侢







灻
仺
嶳
潂
甠
晑
炚
乢
屶
烡


閚
肦


汢


焓







卆

帄


奍
覄

璢

鏫




仦
















﨟













綛















鉇





埞

糿
俤








橵


砘
鋛
瀽
毪
驇

㫃

㛰
䙝
㐬
㬰
䕃
㩼
䕻
䩉

㸷
䟽
㦸
䠱
䖍
㐳
㓷

䭈


䦧
䌕
䜴
䇿

䦙
睭

撧
蹅

啋

巄
矁
茐
氁

閸


庅


┵








嵜



烥








眫




駲




⊕
∨
硳
凉
酻
凣


聛
岾

氜

剱



釻
螁
﹥
賰
〒



鍿


鬜

萔

桒


燣


皩

旘
睤

捚
嬔

槒



敋
犋

錅

矵
澚
骵
櫊





嶶
碠
烎
粌
鵤

鰐
橴


















躀







墕

















靱


獆
襇
牤
乪
籂
骪
伬
峲
鷴
搾

蹧





輋
萞
鉪
垈

焣


硶
蹥
荴



踿




傐
獤
獕
塇
┡
┿





柪






桟
椦

苅


銨
鉭
鈥
釢

ゐ
灡
⒅
鎿
耪
⒖
┮










鵈




≯
≠
釓
㈨
銫
椺
鶫
蟌
庝


鱚









祵


錽

鎼


矋

鳮





挔


嶎
瀮
煺
鎶
糥
崅
塀
饂
潅
趰
耲
鰯
賋
笽
鑎
傦
栣
鐯
栆
鶍
隦
銰
㎏
曻






硲


舤










倵
煡






翆
瞕
烢
麬
噛
鱛
熘



賌
烿
摿

隡





















ビ



び






┪


































鋱





⒛





ベ








ゴ








┎
















輏
潥





蟵

蘏

瘺
錩
垇
疍
擓
鬎
壋
噝
巰
綥
嬍
樭
萗
脒
娰
袮


悡
琷

砛
漗
埑
鋢
鏼
堔
燱
翝
仩
凨
叺
檚
銏
躎
梽
擈
萣
熓
濸




銲
氝
乭
櫷
怹
錻
栂
偖
暷
屲
筙
甴
乮
苉
焹
伩
魐
螥
釮
囼
牫
霥
楻
獊
撹
⒌
乲
⒄
焨
釾
堼
墷
煫
燨
銣
灁
駦
┚

☰
☱
☲
☳
☴
☵
☶
☷
戝

醌






腙
皍
癝
諚
鎃












怰















剓






璍
乄
榊
鶸
硓
㈩
煶

藵
晽
鉳
瓾
匷
伔
叾
渄
茊


橮
垉





ポ









鯒
湹
≌
∵


嶥
魸
鮕
鮗
鮘
鮙
魞




鶑
閳









懗




賩







濏







瞮





啳











檰













﹢





漖
鑔
屪
煱



孻



╄
辷
鎇
鰺
鰧
墶

洜
湚
淾
淿
澵
濷
溿
灲
湷
湺
孞
溬
濐
漛
潃
灀
燗
烣
炛
煭
炿
焧
焩
焺
煯
煰
燚
玬
燳
珜
猆
紎
獈
錱
珟
珯
琝
琞
斊
璌
璳
粋
睓
瘬
皨
瞈
瞜
瞊
窛
簐
穦
窤
禤
箼
窷
篭
篶
巺

笷
籇
籘
絊
糆
涋
糡
紣
絴
胢
肞
繝
繺
纞
聜
罓
捛
芕
腗
膣
萖
艩
叏
灳
蕥
蘔
藧
蘍
虠
訲
覾
諬
赼
閅
訯
誈
觨
諪
閄
讛
貥
貵
趇
贁
雬
趶
贂
赻
蹆
迏
躌
踋
轋
鈝
邫
迲
逇
郬
郌
郶
酫
鈡
鉫
銢
銝
錰
鍕
鎀
鎥
鎫
鎱
鐞
隭
鑬
雫
闝
闁
雼
寈
韷
靵
鞩
樄
鯭
鯯
霕
饄
馟
飝
饓
饝
馫
魲
駳
鯌
鯣
鰆
鰮
鵢
鴌
鴵
鱆
鳾
鶐
鷍
鵿
尛
麍
麣
䴉
乁
乵
亗
娦
琋
塦
奙
夁
垨
嚿
佭
坓
囯
囻
噾
囸
氼
喯
嘋
噕
嘃
槑
唀
疩
啠
砃
吢
匎
叝
呄
劰
兏
侽
劧
凲
儫
儝
傡
玌
倲
偧

倊
亴
伖
鋴
孯
慩
徱
捑
冧
朤
砙
奛
嫹
媙
嬊
宆
宺
嫊
嬠
嫐
孆
宒
尶
岎
岄
敯
砶
恏
庺
忰
怷
扥
萕
拀
挗
挊
撪
柼
桽
撯
搻
搼
詚
擙
擵
覨
斱
晿
曗
曱
柾
梷
棾
椖
銡
臫
樖
閁
檺
槰
欫
橣
橯
殌
毩
櫢
櫴
笀
欁
歵
髨

箣
涁
鐠




乬
硛
垪
┳
⒚
剦
墹
ⅸ
槕
⒇
佨
┽
蒅
繨
涥
彁

欍





﨤


╊
┟


耥
霻
椡
渆
躾


╈







溋


苊
▄
拤
砹
倻


枦
爦
蒎
︸
薭
篒
硘
罖
偺

槞
涜
䝉
㫖
㑹
䕫
㓜
䧏
㣲
㝠
㕘
䧺
㧞
㓙
䘮
㨗
䴡
㤙
㤗
㤀
㝷
㸃
㡬
㒺
䢵
䟦
㳟
㓕
䕶
䢴
䁥
㐫
㪚


襽

堓
┖
┧
┍
氕
┷
肟
銩
鎷
鰙















膤

鞷

釼
∧








闧











唖
∷



躻
錷
ü
捤


鎵
繌
鑤

簱

╟
鎲
闎


椚













魹




















櫉








椬



掱

粨
⒍


⒙

氚

┏

鎆
氬
┈
猟
粏
釸
敨
鉰
恷



簲
〤

炞




ꇰ

麶
媬




癷














﹤
鐦
脎
塄
嶿
讅
蒄




瞣



椞





懳


琒
欌
煷





窧
厾



錴


┓
╋
┫
┻
┛

呍


倷








椩
鯓








杣
凧
椥
糎
粍
蹽








橲



溊





砕
粭

爠

掵





兙
嗴

畄












遖
滘

挧

玍
ခ
쐀
਀
ᬀ
פ
̀
▢

縇
簗
粐
┨
潊
兿
≮
稤
墸
迚
岼
桝
糀
螦
軕
稥
⒗
⒕
⒔
⒐


























襨
嶌
ⅺ
閪
╝
▁
╦
╗
╣
╩

灐
釔

禣

▔
鎽


㈧
鐨
゛


焔



椨
忁

揻
豒






焾
嘝
圦




喴

﨎
幤
⒎
⒑
⒒
⒓


ꗍ
쨥




╅
脵
氱
潌





楾
垳

粩









裇
軅
呏
摂
粫
塁
蓜
揼
嵶
蛯
笂
袰
鼡
榁
暃
嘥
麿
啩
亇
糘
裃
蓙
囎
竍
竕
竡
簓
鞐
鮴
縅
繧
纃
艝
襷
裄
軈
轌
閊

ꗋ
乺
乽
杤
亪


枩
秊









œ






















乼
氥
鞡
☉
橻
椧
﹌

